{
  "version": "1.0",
  "truncation": null,
  "padding": null,
  "added_tokens": [
    {
      "id": 0,
      "content": "[UNK]",
      "single_word": false,
      "lstrip": false,
      "rstrip": false,
      "normalized": false,
      "special": true
    },
    {
      "id": 1,
      "content": "[CLS]",
      "single_word": false,
      "lstrip": false,
      "rstrip": false,
      "normalized": false,
      "special": true
    },
    {
      "id": 2,
      "content": "[SEP]",
      "single_word": false,
      "lstrip": false,
      "rstrip": false,
      "normalized": false,
      "special": true
    },
    {
      "id": 3,
      "content": "[PAD]",
      "single_word": false,
      "lstrip": false,
      "rstrip": false,
      "normalized": false,
      "special": true
    },
    {
      "id": 4,
      "content": "[MASK]",
      "single_word": false,
      "lstrip": false,
      "rstrip": false,
      "normalized": false,
      "special": true
    }
  ],
  "normalizer": null,
  "pre_tokenizer": {
    "type": "Whitespace"
  },
  "post_processor": null,
  "decoder": null,
  "model": {
    "type": "BPE",
    "dropout": null,
    "unk_token": "[UNK]",
    "continuing_subword_prefix": null,
    "end_of_word_suffix": null,
    "fuse_unk": false,
    "byte_fallback": false,
    "ignore_merges": false,
    "vocab": {
      "[UNK]": 0,
      "[CLS]": 1,
      "[SEP]": 2,
      "[PAD]": 3,
      "[MASK]": 4,
      "!": 5,
      "\"": 6,
      "#": 7,
      "$": 8,
      "%": 9,
      "&": 10,
      "'": 11,
      "(": 12,
      ")": 13,
      "*": 14,
      "+": 15,
      ",": 16,
      "-": 17,
      ".": 18,
      "/": 19,
      "0": 20,
      "1": 21,
      "2": 22,
      "3": 23,
      "4": 24,
      "5": 25,
      "6": 26,
      "7": 27,
      "8": 28,
      "9": 29,
      ":": 30,
      ";": 31,
      "<": 32,
      "=": 33,
      ">": 34,
      "?": 35,
      "@": 36,
      "A": 37,
      "B": 38,
      "C": 39,
      "D": 40,
      "E": 41,
      "F": 42,
      "G": 43,
      "H": 44,
      "I": 45,
      "J": 46,
      "K": 47,
      "L": 48,
      "M": 49,
      "N": 50,
      "O": 51,
      "P": 52,
      "Q": 53,
      "R": 54,
      "S": 55,
      "T": 56,
      "U": 57,
      "V": 58,
      "W": 59,
      "X": 60,
      "Y": 61,
      "Z": 62,
      "[": 63,
      "\\": 64,
      "]": 65,
      "^": 66,
      "_": 67,
      "`": 68,
      "a": 69,
      "b": 70,
      "c": 71,
      "d": 72,
      "e": 73,
      "f": 74,
      "g": 75,
      "h": 76,
      "i": 77,
      "j": 78,
      "k": 79,
      "l": 80,
      "m": 81,
      "n": 82,
      "o": 83,
      "p": 84,
      "q": 85,
      "r": 86,
      "s": 87,
      "t": 88,
      "u": 89,
      "v": 90,
      "w": 91,
      "x": 92,
      "y": 93,
      "z": 94,
      "{": 95,
      "|": 96,
      "}": 97,
      "~": 98,
      "": 99,
      "": 100,
      "": 101,
      "": 102,
      "": 103,
      "": 104,
      "": 105,
      "": 106,
      "": 107,
      "": 108,
      "": 109,
      "": 110,
      "": 111,
      "": 112,
      "": 113,
      "": 114,
      "": 115,
      "": 116,
      "": 117,
      "": 118,
      "": 119,
      "": 120,
      "": 121,
      "": 122,
      "": 123,
      "": 124,
      "": 125,
      "": 126,
      "": 127,
      "": 128,
      "": 129,
      "¡": 130,
      "¢": 131,
      "£": 132,
      "¤": 133,
      "¥": 134,
      "¦": 135,
      "§": 136,
      "©": 137,
      "«": 138,
      "¬": 139,
      "­": 140,
      "®": 141,
      "°": 142,
      "±": 143,
      "¶": 144,
      "·": 145,
      "»": 146,
      "¿": 147,
      "Æ": 148,
      "Ð": 149,
      "×": 150,
      "Ø": 151,
      "Þ": 152,
      "ß": 153,
      "æ": 154,
      "ð": 155,
      "÷": 156,
      "ø": 157,
      "þ": 158,
      "Đ": 159,
      "đ": 160,
      "Ħ": 161,
      "ħ": 162,
      "ı": 163,
      "Ł": 164,
      "ł": 165,
      "ŋ": 166,
      "Œ": 167,
      "œ": 168,
      "Ŧ": 169,
      "Ɔ": 170,
      "Ƌ": 171,
      "ƌ": 172,
      "Ǝ": 173,
      "ƒ": 174,
      "ƶ": 175,
      "ǁ": 176,
      "ǂ": 177,
      "ǃ": 178,
      "Ȝ": 179,
      "ȝ": 180,
      "ȷ": 181,
      "Ɂ": 182,
      "ɂ": 183,
      "ɐ": 184,
      "ɑ": 185,
      "ɒ": 186,
      "ɓ": 187,
      "ɔ": 188,
      "ɕ": 189,
      "ɖ": 190,
      "ɗ": 191,
      "ɘ": 192,
      "ə": 193,
      "ɛ": 194,
      "ɜ": 195,
      "ɝ": 196,
      "ɠ": 197,
      "ɡ": 198,
      "ɢ": 199,
      "ɣ": 200,
      "ɥ": 201,
      "ɦ": 202,
      "ɨ": 203,
      "ɪ": 204,
      "ɫ": 205,
      "ɬ": 206,
      "ɮ": 207,
      "ɲ": 208,
      "ɳ": 209,
      "ɴ": 210,
      "ɶ": 211,
      "ɹ": 212,
      "ɾ": 213,
      "ʀ": 214,
      "ʁ": 215,
      "ʃ": 216,
      "ʄ": 217,
      "ʉ": 218,
      "ʊ": 219,
      "ʋ": 220,
      "ʌ": 221,
      "ʎ": 222,
      "ʏ": 223,
      "ʐ": 224,
      "ʒ": 225,
      "ʔ": 226,
      "ʕ": 227,
      "ʙ": 228,
      "ʛ": 229,
      "ʜ": 230,
      "ʟ": 231,
      "ʤ": 232,
      "ʦ": 233,
      "ʹ": 234,
      "ʻ": 235,
      "ʼ": 236,
      "ʽ": 237,
      "ʾ": 238,
      "ʿ": 239,
      "ˀ": 240,
      "ˁ": 241,
      "ˆ": 242,
      "ˇ": 243,
      "ˈ": 244,
      "ˊ": 245,
      "ˋ": 246,
      "ˌ": 247,
      "ː": 248,
      "˥": 249,
      "˧": 250,
      "˨": 251,
      "˩": 252,
      "˹": 253,
      "˺": 254,
      "̀": 255,
      "́": 256,
      "̂": 257,
      "̃": 258,
      "̄": 259,
      "̅": 260,
      "̆": 261,
      "̇": 262,
      "̈": 263,
      "̉": 264,
      "̊": 265,
      "̋": 266,
      "̌": 267,
      "̍": 268,
      "̐": 269,
      "̑": 270,
      "̓": 271,
      "̔": 272,
      "̚": 273,
      "̛": 274,
      "̞": 275,
      "̠": 276,
      "̣": 277,
      "̤": 278,
      "̥": 279,
      "̦": 280,
      "̧": 281,
      "̨": 282,
      "̩": 283,
      "̪": 284,
      "̭": 285,
      "̮": 286,
      "̯": 287,
      "̱": 288,
      "̲": 289,
      "̸": 290,
      "̺": 291,
      "̼": 292,
      "̿": 293,
      "͂": 294,
      "ͅ": 295,
      "͛": 296,
      "͜": 297,
      "͡": 298,
      "Α": 299,
      "Β": 300,
      "Γ": 301,
      "Δ": 302,
      "Ε": 303,
      "Ζ": 304,
      "Η": 305,
      "Θ": 306,
      "Ι": 307,
      "Κ": 308,
      "Λ": 309,
      "Μ": 310,
      "Ν": 311,
      "Ξ": 312,
      "Ο": 313,
      "Π": 314,
      "Ρ": 315,
      "Σ": 316,
      "Τ": 317,
      "Υ": 318,
      "Φ": 319,
      "Χ": 320,
      "Ψ": 321,
      "Ω": 322,
      "α": 323,
      "β": 324,
      "γ": 325,
      "δ": 326,
      "ε": 327,
      "ζ": 328,
      "η": 329,
      "θ": 330,
      "ι": 331,
      "κ": 332,
      "λ": 333,
      "μ": 334,
      "ν": 335,
      "ξ": 336,
      "ο": 337,
      "π": 338,
      "ρ": 339,
      "ς": 340,
      "σ": 341,
      "τ": 342,
      "υ": 343,
      "φ": 344,
      "χ": 345,
      "ψ": 346,
      "ω": 347,
      "Ϙ": 348,
      "Ϛ": 349,
      "ϛ": 350,
      "Ϝ": 351,
      "ϝ": 352,
      "Ϸ": 353,
      "ϸ": 354,
      "Ϻ": 355,
      "ϻ": 356,
      "Ђ": 357,
      "Є": 358,
      "Ѕ": 359,
      "І": 360,
      "Ј": 361,
      "Љ": 362,
      "Њ": 363,
      "А": 364,
      "Б": 365,
      "В": 366,
      "Г": 367,
      "Д": 368,
      "Е": 369,
      "Ж": 370,
      "З": 371,
      "И": 372,
      "К": 373,
      "Л": 374,
      "М": 375,
      "Н": 376,
      "О": 377,
      "П": 378,
      "Р": 379,
      "С": 380,
      "Т": 381,
      "У": 382,
      "Ф": 383,
      "Х": 384,
      "Ц": 385,
      "Ч": 386,
      "Ш": 387,
      "Щ": 388,
      "Ъ": 389,
      "Ь": 390,
      "Э": 391,
      "Ю": 392,
      "Я": 393,
      "а": 394,
      "б": 395,
      "в": 396,
      "г": 397,
      "д": 398,
      "е": 399,
      "ж": 400,
      "з": 401,
      "и": 402,
      "к": 403,
      "л": 404,
      "м": 405,
      "н": 406,
      "о": 407,
      "п": 408,
      "р": 409,
      "с": 410,
      "т": 411,
      "у": 412,
      "ф": 413,
      "х": 414,
      "ц": 415,
      "ч": 416,
      "ш": 417,
      "щ": 418,
      "ъ": 419,
      "ы": 420,
      "ь": 421,
      "э": 422,
      "ю": 423,
      "я": 424,
      "ђ": 425,
      "є": 426,
      "ѕ": 427,
      "і": 428,
      "ј": 429,
      "љ": 430,
      "њ": 431,
      "ћ": 432,
      "Ѡ": 433,
      "ѡ": 434,
      "Ѣ": 435,
      "ѣ": 436,
      "Ѧ": 437,
      "ѧ": 438,
      "Ѫ": 439,
      "ѫ": 440,
      "Ѯ": 441,
      "Ѱ": 442,
      "Ѳ": 443,
      "Ҁ": 444,
      "҆": 445,
      "ҍ": 446,
      "Ҏ": 447,
      "ҏ": 448,
      "Ґ": 449,
      "ґ": 450,
      "ғ": 451,
      "Қ": 452,
      "қ": 453,
      "ҧ": 454,
      "Ҫ": 455,
      "ү": 456,
      "ұ": 457,
      "ҹ": 458,
      "Ӏ": 459,
      "ӆ": 460,
      "ӈ": 461,
      "Ә": 462,
      "ә": 463,
      "Ө": 464,
      "ө": 465,
      "Ԁ": 466,
      "ԁ": 467,
      "Ԙ": 468,
      "ԙ": 469,
      "Ա": 470,
      "Գ": 471,
      "Դ": 472,
      "Ե": 473,
      "Թ": 474,
      "Ժ": 475,
      "Ի": 476,
      "Լ": 477,
      "Կ": 478,
      "Հ": 479,
      "Մ": 480,
      "Ն": 481,
      "Շ": 482,
      "Ո": 483,
      "Պ": 484,
      "Ջ": 485,
      "Ռ": 486,
      "Ս": 487,
      "Վ": 488,
      "Ց": 489,
      "Փ": 490,
      "Ք": 491,
      "Ֆ": 492,
      "ա": 493,
      "բ": 494,
      "գ": 495,
      "դ": 496,
      "ե": 497,
      "զ": 498,
      "է": 499,
      "թ": 500,
      "ի": 501,
      "լ": 502,
      "խ": 503,
      "կ": 504,
      "հ": 505,
      "ղ": 506,
      "մ": 507,
      "յ": 508,
      "ն": 509,
      "շ": 510,
      "ո": 511,
      "չ": 512,
      "պ": 513,
      "ս": 514,
      "վ": 515,
      "տ": 516,
      "ր": 517,
      "ց": 518,
      "ւ": 519,
      "փ": 520,
      "ք": 521,
      "օ": 522,
      "ֆ": 523,
      "֔": 524,
      "֣": 525,
      "ְ": 526,
      "ִ": 527,
      "ֵ": 528,
      "ַ": 529,
      "ָ": 530,
      "ֹ": 531,
      "ּ": 532,
      "־": 533,
      "ֿ": 534,
      "ׁ": 535,
      "ׂ": 536,
      "א": 537,
      "ב": 538,
      "ג": 539,
      "ד": 540,
      "ה": 541,
      "ו": 542,
      "ז": 543,
      "ח": 544,
      "ט": 545,
      "י": 546,
      "ך": 547,
      "כ": 548,
      "ל": 549,
      "ם": 550,
      "מ": 551,
      "ן": 552,
      "נ": 553,
      "ס": 554,
      "ע": 555,
      "ף": 556,
      "פ": 557,
      "ץ": 558,
      "צ": 559,
      "ק": 560,
      "ר": 561,
      "ש": 562,
      "ת": 563,
      "״": 564,
      "،": 565,
      "ء": 566,
      "ا": 567,
      "ب": 568,
      "ة": 569,
      "ت": 570,
      "ث": 571,
      "ج": 572,
      "ح": 573,
      "خ": 574,
      "د": 575,
      "ذ": 576,
      "ر": 577,
      "ز": 578,
      "س": 579,
      "ش": 580,
      "ص": 581,
      "ض": 582,
      "ط": 583,
      "ظ": 584,
      "ع": 585,
      "غ": 586,
      "ـ": 587,
      "ف": 588,
      "ق": 589,
      "ك": 590,
      "ل": 591,
      "م": 592,
      "ن": 593,
      "ه": 594,
      "و": 595,
      "ى": 596,
      "ي": 597,
      "ً": 598,
      "ٌ": 599,
      "ٍ": 600,
      "َ": 601,
      "ُ": 602,
      "ِ": 603,
      "ّ": 604,
      "ْ": 605,
      "ٓ": 606,
      "ٔ": 607,
      "ٕ": 608,
      "١": 609,
      "٢": 610,
      "٤": 611,
      "٥": 612,
      "٦": 613,
      "٧": 614,
      "٨": 615,
      "٩": 616,
      "ٰ": 617,
      "ٱ": 618,
      "ٹ": 619,
      "ٽ": 620,
      "پ": 621,
      "ٿ": 622,
      "ڄ": 623,
      "څ": 624,
      "چ": 625,
      "ڈ": 626,
      "ڊ": 627,
      "ڌ": 628,
      "ڑ": 629,
      "ڕ": 630,
      "ژ": 631,
      "ښ": 632,
      "ڠ": 633,
      "ڤ": 634,
      "ک": 635,
      "ڬ": 636,
      "ڭ": 637,
      "گ": 638,
      "ڵ": 639,
      "ں": 640,
      "ڽ": 641,
      "ھ": 642,
      "ہ": 643,
      "ۆ": 644,
      "ی": 645,
      "ێ": 646,
      "ې": 647,
      "ے": 648,
      "ە": 649,
      "ۖ": 650,
      "ۗ": 651,
      "ۚ": 652,
      "۟": 653,
      "ۢ": 654,
      "ۥ": 655,
      "۶": 656,
      "۷": 657,
      "ܐ": 658,
      "ܒ": 659,
      "ܕ": 660,
      "ܘ": 661,
      "ܚ": 662,
      "ܟ": 663,
      "ܡ": 664,
      "ܣ": 665,
      "ܪ": 666,
      "ܫ": 667,
      "ܬ": 668,
      "ݢ": 669,
      "ހ": 670,
      "ށ": 671,
      "ނ": 672,
      "ރ": 673,
      "ބ": 674,
      "ކ": 675,
      "އ": 676,
      "ވ": 677,
      "މ": 678,
      "ފ": 679,
      "ދ": 680,
      "ތ": 681,
      "ލ": 682,
      "ގ": 683,
      "ސ": 684,
      "ޑ": 685,
      "ޒ": 686,
      "ޔ": 687,
      "ޖ": 688,
      "ޙ": 689,
      "ޛ": 690,
      "ޝ": 691,
      "ޞ": 692,
      "ޢ": 693,
      "ޣ": 694,
      "ޤ": 695,
      "ަ": 696,
      "ާ": 697,
      "ި": 698,
      "ީ": 699,
      "ު": 700,
      "ޫ": 701,
      "ެ": 702,
      "ޭ": 703,
      "ޮ": 704,
      "ް": 705,
      "ँ": 706,
      "ं": 707,
      "ः": 708,
      "अ": 709,
      "आ": 710,
      "इ": 711,
      "उ": 712,
      "ऋ": 713,
      "ए": 714,
      "ओ": 715,
      "क": 716,
      "ख": 717,
      "ग": 718,
      "घ": 719,
      "ङ": 720,
      "च": 721,
      "छ": 722,
      "ज": 723,
      "ञ": 724,
      "ट": 725,
      "ठ": 726,
      "ड": 727,
      "ढ": 728,
      "ण": 729,
      "त": 730,
      "थ": 731,
      "द": 732,
      "ध": 733,
      "न": 734,
      "प": 735,
      "फ": 736,
      "ब": 737,
      "भ": 738,
      "म": 739,
      "य": 740,
      "र": 741,
      "ल": 742,
      "ळ": 743,
      "व": 744,
      "श": 745,
      "ष": 746,
      "स": 747,
      "ह": 748,
      "़": 749,
      "ऽ": 750,
      "ा": 751,
      "ि": 752,
      "ी": 753,
      "ु": 754,
      "ू": 755,
      "ृ": 756,
      "े": 757,
      "ै": 758,
      "ॉ": 759,
      "ो": 760,
      "ौ": 761,
      "्": 762,
      "।": 763,
      "॥": 764,
      "०": 765,
      "१": 766,
      "२": 767,
      "३": 768,
      "५": 769,
      "६": 770,
      "७": 771,
      "ঁ": 772,
      "ং": 773,
      "অ": 774,
      "আ": 775,
      "ই": 776,
      "উ": 777,
      "এ": 778,
      "ও": 779,
      "ক": 780,
      "খ": 781,
      "গ": 782,
      "ঘ": 783,
      "ঙ": 784,
      "চ": 785,
      "ছ": 786,
      "জ": 787,
      "ঞ": 788,
      "ট": 789,
      "ড": 790,
      "ঢ": 791,
      "ণ": 792,
      "ত": 793,
      "থ": 794,
      "দ": 795,
      "ধ": 796,
      "ন": 797,
      "প": 798,
      "ফ": 799,
      "ব": 800,
      "ভ": 801,
      "ম": 802,
      "য": 803,
      "র": 804,
      "ল": 805,
      "শ": 806,
      "ষ": 807,
      "স": 808,
      "হ": 809,
      "়": 810,
      "া": 811,
      "ি": 812,
      "ী": 813,
      "ু": 814,
      "ূ": 815,
      "ৃ": 816,
      "ে": 817,
      "ৈ": 818,
      "্": 819,
      "ৎ": 820,
      "ৰ": 821,
      "ਂ": 822,
      "ਅ": 823,
      "ਆ": 824,
      "ਈ": 825,
      "ਓ": 826,
      "ਔ": 827,
      "ਖ": 828,
      "ਗ": 829,
      "ਘ": 830,
      "ਚ": 831,
      "ਜ": 832,
      "ਠ": 833,
      "ਣ": 834,
      "ਤ": 835,
      "ਥ": 836,
      "ਦ": 837,
      "ਨ": 838,
      "ਪ": 839,
      "ਫ": 840,
      "ਬ": 841,
      "ਮ": 842,
      "ਰ": 843,
      "ਲ": 844,
      "ਵ": 845,
      "ਸ": 846,
      "ਹ": 847,
      "਼": 848,
      "ਾ": 849,
      "ਿ": 850,
      "ੀ": 851,
      "ੁ": 852,
      "ੇ": 853,
      "ੈ": 854,
      "ੋ": 855,
      "ੜ": 856,
      "ੰ": 857,
      "ੱ": 858,
      "ં": 859,
      "ક": 860,
      "ગ": 861,
      "ચ": 862,
      "છ": 863,
      "જ": 864,
      "ટ": 865,
      "ડ": 866,
      "ત": 867,
      "દ": 868,
      "ન": 869,
      "બ": 870,
      "ય": 871,
      "ર": 872,
      "લ": 873,
      "સ": 874,
      "હ": 875,
      "ા": 876,
      "િ": 877,
      "ી": 878,
      "ુ": 879,
      "ે": 880,
      "ો": 881,
      "્": 882,
      "ଂ": 883,
      "ଜ": 884,
      "ଧ": 885,
      "ମ": 886,
      "ର": 887,
      "ସ": 888,
      "ହ": 889,
      "ା": 890,
      "ି": 891,
      "ୁ": 892,
      "େ": 893,
      "ஃ": 894,
      "அ": 895,
      "இ": 896,
      "ஈ": 897,
      "ஊ": 898,
      "எ": 899,
      "ஐ": 900,
      "ஒ": 901,
      "க": 902,
      "ங": 903,
      "ச": 904,
      "ஜ": 905,
      "ஞ": 906,
      "ட": 907,
      "ண": 908,
      "த": 909,
      "ந": 910,
      "ன": 911,
      "ப": 912,
      "ம": 913,
      "ய": 914,
      "ர": 915,
      "ற": 916,
      "ல": 917,
      "ள": 918,
      "ழ": 919,
      "வ": 920,
      "ஸ": 921,
      "ா": 922,
      "ி": 923,
      "ீ": 924,
      "ு": 925,
      "ூ": 926,
      "ெ": 927,
      "ே": 928,
      "ை": 929,
      "்": 930,
      "ం": 931,
      "ః": 932,
      "అ": 933,
      "ఆ": 934,
      "ఇ": 935,
      "ఈ": 936,
      "ఉ": 937,
      "ఊ": 938,
      "ఋ": 939,
      "ఎ": 940,
      "ఏ": 941,
      "ఐ": 942,
      "ఒ": 943,
      "ఓ": 944,
      "ఔ": 945,
      "క": 946,
      "ఖ": 947,
      "గ": 948,
      "ఘ": 949,
      "ఙ": 950,
      "చ": 951,
      "ఛ": 952,
      "జ": 953,
      "ఝ": 954,
      "ఞ": 955,
      "ట": 956,
      "ఠ": 957,
      "డ": 958,
      "ఢ": 959,
      "ణ": 960,
      "త": 961,
      "థ": 962,
      "ద": 963,
      "ధ": 964,
      "న": 965,
      "ప": 966,
      "ఫ": 967,
      "బ": 968,
      "భ": 969,
      "మ": 970,
      "య": 971,
      "ర": 972,
      "ఱ": 973,
      "ల": 974,
      "ళ": 975,
      "వ": 976,
      "శ": 977,
      "ష": 978,
      "స": 979,
      "హ": 980,
      "ా": 981,
      "ి": 982,
      "ీ": 983,
      "ు": 984,
      "ూ": 985,
      "ె": 986,
      "్": 987,
      "ౕ": 988,
      "ౖ": 989,
      "ౠ": 990,
      "౦": 991,
      "౧": 992,
      "౨": 993,
      "౩": 994,
      "౪": 995,
      "౫": 996,
      "౬": 997,
      "౭": 998,
      "౮": 999,
      "౯": 1000,
      "ಕ": 1001,
      "ಟ": 1002,
      "ಡ": 1003,
      "ಣ": 1004,
      "ಪ": 1005,
      "ಯ": 1006,
      "ರ": 1007,
      "ಲ": 1008,
      "ಳ": 1009,
      "ಶ": 1010,
      "ಸ": 1011,
      "ಹ": 1012,
      "ಾ": 1013,
      "ಿ": 1014,
      "ೂ": 1015,
      "ೆ": 1016,
      "್": 1017,
      "ೕ": 1018,
      "ം": 1019,
      "അ": 1020,
      "ക": 1021,
      "ഗ": 1022,
      "ങ": 1023,
      "ച": 1024,
      "ജ": 1025,
      "ഞ": 1026,
      "ട": 1027,
      "ത": 1028,
      "ദ": 1029,
      "ന": 1030,
      "പ": 1031,
      "മ": 1032,
      "യ": 1033,
      "ര": 1034,
      "റ": 1035,
      "ള": 1036,
      "വ": 1037,
      "ശ": 1038,
      "ഷ": 1039,
      "സ": 1040,
      "ഹ": 1041,
      "ാ": 1042,
      "ി": 1043,
      "ീ": 1044,
      "ു": 1045,
      "െ": 1046,
      "േ": 1047,
      "്": 1048,
      "ൻ": 1049,
      "ർ": 1050,
      "ൽ": 1051,
      "ං": 1052,
      "අ": 1053,
      "ආ": 1054,
      "ඇ": 1055,
      "එ": 1056,
      "ඖ": 1057,
      "ක": 1058,
      "ග": 1059,
      "ච": 1060,
      "ජ": 1061,
      "ඥ": 1062,
      "ට": 1063,
      "ඨ": 1064,
      "ඩ": 1065,
      "ණ": 1066,
      "ත": 1067,
      "ද": 1068,
      "ධ": 1069,
      "න": 1070,
      "ප": 1071,
      "බ": 1072,
      "භ": 1073,
      "ම": 1074,
      "ය": 1075,
      "ර": 1076,
      "ල": 1077,
      "ව": 1078,
      "ශ": 1079,
      "ෂ": 1080,
      "ස": 1081,
      "හ": 1082,
      "්": 1083,
      "ා": 1084,
      "ැ": 1085,
      "ි": 1086,
      "ී": 1087,
      "ු": 1088,
      "ෘ": 1089,
      "ෙ": 1090,
      "ก": 1091,
      "ข": 1092,
      "ค": 1093,
      "ง": 1094,
      "จ": 1095,
      "ฉ": 1096,
      "ช": 1097,
      "ซ": 1098,
      "ญ": 1099,
      "ฎ": 1100,
      "ฏ": 1101,
      "ฐ": 1102,
      "ฑ": 1103,
      "ฒ": 1104,
      "ณ": 1105,
      "ด": 1106,
      "ต": 1107,
      "ถ": 1108,
      "ท": 1109,
      "ธ": 1110,
      "น": 1111,
      "บ": 1112,
      "ป": 1113,
      "ผ": 1114,
      "ฝ": 1115,
      "พ": 1116,
      "ฟ": 1117,
      "ภ": 1118,
      "ม": 1119,
      "ย": 1120,
      "ร": 1121,
      "ฤ": 1122,
      "ล": 1123,
      "ว": 1124,
      "ศ": 1125,
      "ษ": 1126,
      "ส": 1127,
      "ห": 1128,
      "ฬ": 1129,
      "อ": 1130,
      "ฯ": 1131,
      "ะ": 1132,
      "ั": 1133,
      "า": 1134,
      "ิ": 1135,
      "ี": 1136,
      "ึ": 1137,
      "ื": 1138,
      "ุ": 1139,
      "ู": 1140,
      "เ": 1141,
      "แ": 1142,
      "โ": 1143,
      "ใ": 1144,
      "ไ": 1145,
      "็": 1146,
      "่": 1147,
      "้": 1148,
      "๊": 1149,
      "์": 1150,
      "ํ": 1151,
      "๏": 1152,
      "ກ": 1153,
      "ຄ": 1154,
      "ຊ": 1155,
      "ຍ": 1156,
      "ດ": 1157,
      "ທ": 1158,
      "ນ": 1159,
      "ບ": 1160,
      "ຜ": 1161,
      "ພ": 1162,
      "ລ": 1163,
      "ວ": 1164,
      "ສ": 1165,
      "ຫ": 1166,
      "ອ": 1167,
      "ຮ": 1168,
      "ະ": 1169,
      "ັ": 1170,
      "າ": 1171,
      "ິ": 1172,
      "ີ": 1173,
      "ຶ": 1174,
      "ື": 1175,
      "ູ": 1176,
      "ົ": 1177,
      "ເ": 1178,
      "ແ": 1179,
      "ໃ": 1180,
      "ໄ": 1181,
      "່": 1182,
      "້": 1183,
      "ໍ": 1184,
      "་": 1185,
      "།": 1186,
      "ཀ": 1187,
      "ག": 1188,
      "ང": 1189,
      "ཆ": 1190,
      "ཏ": 1191,
      "ཐ": 1192,
      "ད": 1193,
      "ན": 1194,
      "པ": 1195,
      "ཕ": 1196,
      "བ": 1197,
      "མ": 1198,
      "ཙ": 1199,
      "ཞ": 1200,
      "ར": 1201,
      "ལ": 1202,
      "ས": 1203,
      "ཧ": 1204,
      "ཱ": 1205,
      "ི": 1206,
      "ུ": 1207,
      "ེ": 1208,
      "ོ": 1209,
      "ྒ": 1210,
      "ྗ": 1211,
      "ྟ": 1212,
      "ྨ": 1213,
      "ྱ": 1214,
      "ྲ": 1215,
      "က": 1216,
      "ဃ": 1217,
      "င": 1218,
      "စ": 1219,
      "ဆ": 1220,
      "ဇ": 1221,
      "ဈ": 1222,
      "ဉ": 1223,
      "ည": 1224,
      "ဋ": 1225,
      "ဌ": 1226,
      "ဍ": 1227,
      "ဎ": 1228,
      "ဏ": 1229,
      "တ": 1230,
      "ထ": 1231,
      "ဓ": 1232,
      "န": 1233,
      "ပ": 1234,
      "ဗ": 1235,
      "ဘ": 1236,
      "မ": 1237,
      "ရ": 1238,
      "လ": 1239,
      "ဝ": 1240,
      "သ": 1241,
      "ဟ": 1242,
      "ဠ": 1243,
      "ဥ": 1244,
      "ါ": 1245,
      "ာ": 1246,
      "ိ": 1247,
      "ီ": 1248,
      "ု": 1249,
      "ူ": 1250,
      "ေ": 1251,
      "့": 1252,
      "း": 1253,
      "်": 1254,
      "ျ": 1255,
      "ြ": 1256,
      "ွ": 1257,
      "ှ": 1258,
      "၀": 1259,
      "၁": 1260,
      "၂": 1261,
      "၃": 1262,
      "၄": 1263,
      "၅": 1264,
      "၆": 1265,
      "၇": 1266,
      "၈": 1267,
      "၉": 1268,
      "ၐ": 1269,
      "ၑ": 1270,
      "ა": 1271,
      "ბ": 1272,
      "გ": 1273,
      "დ": 1274,
      "ე": 1275,
      "ვ": 1276,
      "ზ": 1277,
      "თ": 1278,
      "ი": 1279,
      "კ": 1280,
      "ლ": 1281,
      "მ": 1282,
      "ნ": 1283,
      "ო": 1284,
      "რ": 1285,
      "ს": 1286,
      "ტ": 1287,
      "უ": 1288,
      "ქ": 1289,
      "ღ": 1290,
      "შ": 1291,
      "ც": 1292,
      "ძ": 1293,
      "წ": 1294,
      "ჭ": 1295,
      "ხ": 1296,
      "ჯ": 1297,
      "ᄀ": 1298,
      "ᄁ": 1299,
      "ᄂ": 1300,
      "ᄃ": 1301,
      "ᄅ": 1302,
      "ᄆ": 1303,
      "ᄇ": 1304,
      "ᄈ": 1305,
      "ᄉ": 1306,
      "ᄊ": 1307,
      "ᄋ": 1308,
      "ᄌ": 1309,
      "ᄍ": 1310,
      "ᄎ": 1311,
      "ᄏ": 1312,
      "ᄐ": 1313,
      "ᄑ": 1314,
      "ᄒ": 1315,
      "ᅡ": 1316,
      "ᅢ": 1317,
      "ᅣ": 1318,
      "ᅥ": 1319,
      "ᅦ": 1320,
      "ᅧ": 1321,
      "ᅨ": 1322,
      "ᅩ": 1323,
      "ᅪ": 1324,
      "ᅫ": 1325,
      "ᅬ": 1326,
      "ᅭ": 1327,
      "ᅮ": 1328,
      "ᅯ": 1329,
      "ᅰ": 1330,
      "ᅱ": 1331,
      "ᅲ": 1332,
      "ᅳ": 1333,
      "ᅴ": 1334,
      "ᅵ": 1335,
      "ᆨ": 1336,
      "ᆫ": 1337,
      "ᆯ": 1338,
      "ᆷ": 1339,
      "ᆸ": 1340,
      "ᆺ": 1341,
      "ᆻ": 1342,
      "ᆼ": 1343,
      "ᆾ": 1344,
      "ᇀ": 1345,
      "ᇁ": 1346,
      "ᇂ": 1347,
      "ሁ": 1348,
      "ህ": 1349,
      "ለ": 1350,
      "ሊ": 1351,
      "ላ": 1352,
      "ሌ": 1353,
      "ሕ": 1354,
      "መ": 1355,
      "ማ": 1356,
      "ሜ": 1357,
      "ረ": 1358,
      "ሪ": 1359,
      "ራ": 1360,
      "ር": 1361,
      "ሮ": 1362,
      "ሰ": 1363,
      "ሳ": 1364,
      "ሴ": 1365,
      "ስ": 1366,
      "ቂ": 1367,
      "ቃ": 1368,
      "ቅ": 1369,
      "ቆ": 1370,
      "ቈ": 1371,
      "ቢ": 1372,
      "ባ": 1373,
      "ብ": 1374,
      "ቦ": 1375,
      "ቲ": 1376,
      "ታ": 1377,
      "ት": 1378,
      "ቸ": 1379,
      "ነ": 1380,
      "ን": 1381,
      "ኖ": 1382,
      "አ": 1383,
      "ኢ": 1384,
      "ኣ": 1385,
      "ከ": 1386,
      "ኩ": 1387,
      "ኮ": 1388,
      "ወ": 1389,
      "ዊ": 1390,
      "ው": 1391,
      "ዐ": 1392,
      "ዕ": 1393,
      "ዘ": 1394,
      "ዝ": 1395,
      "የ": 1396,
      "ያ": 1397,
      "ይ": 1398,
      "ዮ": 1399,
      "ዲ": 1400,
      "ዳ": 1401,
      "ዴ": 1402,
      "ድ": 1403,
      "ጌ": 1404,
      "ግ": 1405,
      "ጎ": 1406,
      "ጵ": 1407,
      "ፍ": 1408,
      "Ꭰ": 1409,
      "Ꭲ": 1410,
      "Ꭴ": 1411,
      "Ꭵ": 1412,
      "Ꭶ": 1413,
      "Ꭹ": 1414,
      "Ꭿ": 1415,
      "Ꮃ": 1416,
      "Ꮅ": 1417,
      "Ꮕ": 1418,
      "Ꮝ": 1419,
      "Ꮢ": 1420,
      "Ꮣ": 1421,
      "Ꮧ": 1422,
      "Ꮪ": 1423,
      "Ꮵ": 1424,
      "Ꮻ": 1425,
      "Ꮿ": 1426,
      "Ᏹ": 1427,
      "ᐃ": 1428,
      "ᐄ": 1429,
      "ᐅ": 1430,
      "ᐆ": 1431,
      "ᐊ": 1432,
      "ᐋ": 1433,
      "ᐦ": 1434,
      "ᐯ": 1435,
      "ᐱ": 1436,
      "ᐸ": 1437,
      "ᑉ": 1438,
      "ᑐ": 1439,
      "ᑕ": 1440,
      "ᑦ": 1441,
      "ᑲ": 1442,
      "ᒃ": 1443,
      "ᒡ": 1444,
      "ᒪ": 1445,
      "ᒻ": 1446,
      "ᓂ": 1447,
      "ᓄ": 1448,
      "ᓇ": 1449,
      "ᓐ": 1450,
      "ᓗ": 1451,
      "ᓪ": 1452,
      "ᓯ": 1453,
      "ᓴ": 1454,
      "ᔅ": 1455,
      "ᔨ": 1456,
      "ᔪ": 1457,
      "ᔭ": 1458,
      "ᔾ": 1459,
      "ᕐ": 1460,
      "ᕙ": 1461,
      "ᕝ": 1462,
      "ᕿ": 1463,
      "ᖃ": 1464,
      "ᖅ": 1465,
      "ᖏ": 1466,
      "ᖑ": 1467,
      "ᖕ": 1468,
      "ᖖ": 1469,
      "ᖦ": 1470,
      "ᗸ": 1471,
      "ᘅ": 1472,
      "ᚠ": 1473,
      "ᚢ": 1474,
      "ᚦ": 1475,
      "ᚨ": 1476,
      "ᚱ": 1477,
      "ᚲ": 1478,
      "ᛖ": 1479,
      "ᝢ": 1480,
      "ᝮ": 1481,
      "ក": 1482,
      "ខ": 1483,
      "គ": 1484,
      "ង": 1485,
      "ច": 1486,
      "ជ": 1487,
      "ញ": 1488,
      "ឌ": 1489,
      "ណ": 1490,
      "ត": 1491,
      "ទ": 1492,
      "ន": 1493,
      "ប": 1494,
      "ព": 1495,
      "ម": 1496,
      "យ": 1497,
      "រ": 1498,
      "ល": 1499,
      "ស": 1500,
      "អ": 1501,
      "ា": 1502,
      "ិ": 1503,
      "ី": 1504,
      "ុ": 1505,
      "ួ": 1506,
      "ៀ": 1507,
      "េ": 1508,
      "ោ": 1509,
      "ៅ": 1510,
      "ំ": 1511,
      "ះ": 1512,
      "់": 1513,
      "្": 1514,
      "០": 1515,
      "១": 1516,
      "២": 1517,
      "៣": 1518,
      "៤": 1519,
      "៥": 1520,
      "៦": 1521,
      "៧": 1522,
      "៨": 1523,
      "៩": 1524,
      "ᴀ": 1525,
      "ᴄ": 1526,
      "ᴅ": 1527,
      "ᴇ": 1528,
      "ᴍ": 1529,
      "ᴏ": 1530,
      "ᴖ": 1531,
      "ᴘ": 1532,
      "ᴛ": 1533,
      "ᴜ": 1534,
      "ᴢ": 1535,
      "ᴥ": 1536,
      "ᴫ": 1537,
      "ᷛ": 1538,
      "ᷞ": 1539,
      "ᷟ": 1540,
      "ᷡ": 1541,
      "ᷢ": 1542,
      "ẞ": 1543,
      "​": 1544,
      "‌": 1545,
      "‍": 1546,
      "‎": 1547,
      "‏": 1548,
      "‐": 1549,
      "‒": 1550,
      "–": 1551,
      "—": 1552,
      "―": 1553,
      "‖": 1554,
      "‘": 1555,
      "’": 1556,
      "‚": 1557,
      "‛": 1558,
      "“": 1559,
      "”": 1560,
      "„": 1561,
      "‟": 1562,
      "†": 1563,
      "‡": 1564,
      "•": 1565,
      "‧": 1566,
      "‪": 1567,
      "‬": 1568,
      "‭": 1569,
      "‰": 1570,
      "′": 1571,
      "›": 1572,
      "※": 1573,
      "‽": 1574,
      "‿": 1575,
      "⁄": 1576,
      "⁠": 1577,
      "⁣": 1578,
      "₡": 1579,
      "₣": 1580,
      "₤": 1581,
      "₦": 1582,
      "₩": 1583,
      "₪": 1584,
      "₫": 1585,
      "€": 1586,
      "₱": 1587,
      "₵": 1588,
      "₹": 1589,
      "₽": 1590,
      "℈": 1591,
      "℔": 1592,
      "℗": 1593,
      "℞": 1594,
      "℥": 1595,
      "←": 1596,
      "↑": 1597,
      "→": 1598,
      "↔": 1599,
      "↦": 1600,
      "↵": 1601,
      "↺": 1602,
      "⇐": 1603,
      "⇒": 1604,
      "⇔": 1605,
      "∀": 1606,
      "∂": 1607,
      "∃": 1608,
      "∅": 1609,
      "∆": 1610,
      "∇": 1611,
      "∈": 1612,
      "∑": 1613,
      "−": 1614,
      "∕": 1615,
      "√": 1616,
      "∛": 1617,
      "∝": 1618,
      "∞": 1619,
      "∠": 1620,
      "∧": 1621,
      "∨": 1622,
      "∩": 1623,
      "∪": 1624,
      "∫": 1625,
      "∴": 1626,
      "∼": 1627,
      "≃": 1628,
      "≅": 1629,
      "≈": 1630,
      "≒": 1631,
      "≔": 1632,
      "≡": 1633,
      "≤": 1634,
      "≥": 1635,
      "≧": 1636,
      "≫": 1637,
      "⊂": 1638,
      "⊆": 1639,
      "⊕": 1640,
      "⊗": 1641,
      "⊙": 1642,
      "⋅": 1643,
      "⌀": 1644,
      "⌂": 1645,
      "⌬": 1646,
      "⏣": 1647,
      "─": 1648,
      "│": 1649,
      "┬": 1650,
      "┴": 1651,
      "┼": 1652,
      "═": 1653,
      "╗": 1654,
      "╚": 1655,
      "█": 1656,
      "■": 1657,
      "◅": 1658,
      "◊": 1659,
      "○": 1660,
      "◌": 1661,
      "●": 1662,
      "◾": 1663,
      "☃": 1664,
      "★": 1665,
      "☆": 1666,
      "☉": 1667,
      "☎": 1668,
      "☭": 1669,
      "☺": 1670,
      "☻": 1671,
      "♀": 1672,
      "♄": 1673,
      "♋": 1674,
      "♠": 1675,
      "♡": 1676,
      "♣": 1677,
      "♥": 1678,
      "♦": 1679,
      "♪": 1680,
      "♫": 1681,
      "♬": 1682,
      "♭": 1683,
      "♮": 1684,
      "♯": 1685,
      "⚥": 1686,
      "✓": 1687,
      "✚": 1688,
      "❤": 1689,
      "⟨": 1690,
      "⟩": 1691,
      "⬄": 1692,
      "ⱡ": 1693,
      "Ɽ": 1694,
      "ⲓ": 1695,
      "ⲙ": 1696,
      "ⲟ": 1697,
      "Ⲫ": 1698,
      "ⲱ": 1699,
      "ⴰ": 1700,
      "ⴱ": 1701,
      "ⴳ": 1702,
      "ⴷ": 1703,
      "ⴹ": 1704,
      "ⴻ": 1705,
      "ⴽ": 1706,
      "ⵀ": 1707,
      "ⵃ": 1708,
      "ⵅ": 1709,
      "ⵉ": 1710,
      "ⵊ": 1711,
      "ⵍ": 1712,
      "ⵎ": 1713,
      "ⵏ": 1714,
      "ⵓ": 1715,
      "ⵔ": 1716,
      "ⵖ": 1717,
      "ⵙ": 1718,
      "ⵛ": 1719,
      "ⵜ": 1720,
      "ⵡ": 1721,
      "ⵢ": 1722,
      "ⵣ": 1723,
      "⸺": 1724,
      "⿰": 1725,
      "⿱": 1726,
      "⿺": 1727,
      "、": 1728,
      "。": 1729,
      "〃": 1730,
      "々": 1731,
      "〈": 1732,
      "〉": 1733,
      "《": 1734,
      "》": 1735,
      "「": 1736,
      "」": 1737,
      "『": 1738,
      "』": 1739,
      "【": 1740,
      "】": 1741,
      "〔": 1742,
      "〕": 1743,
      "〜": 1744,
      "ぁ": 1745,
      "あ": 1746,
      "ぃ": 1747,
      "い": 1748,
      "う": 1749,
      "え": 1750,
      "お": 1751,
      "か": 1752,
      "き": 1753,
      "く": 1754,
      "け": 1755,
      "こ": 1756,
      "さ": 1757,
      "し": 1758,
      "す": 1759,
      "せ": 1760,
      "そ": 1761,
      "た": 1762,
      "ち": 1763,
      "っ": 1764,
      "つ": 1765,
      "て": 1766,
      "と": 1767,
      "な": 1768,
      "に": 1769,
      "ね": 1770,
      "の": 1771,
      "は": 1772,
      "ひ": 1773,
      "ふ": 1774,
      "へ": 1775,
      "ほ": 1776,
      "ま": 1777,
      "み": 1778,
      "む": 1779,
      "め": 1780,
      "も": 1781,
      "ゃ": 1782,
      "や": 1783,
      "ゅ": 1784,
      "ゆ": 1785,
      "ょ": 1786,
      "よ": 1787,
      "ら": 1788,
      "り": 1789,
      "る": 1790,
      "れ": 1791,
      "ろ": 1792,
      "わ": 1793,
      "を": 1794,
      "ん": 1795,
      "゙": 1796,
      "゚": 1797,
      "ァ": 1798,
      "ア": 1799,
      "ィ": 1800,
      "イ": 1801,
      "ウ": 1802,
      "ェ": 1803,
      "エ": 1804,
      "ォ": 1805,
      "オ": 1806,
      "カ": 1807,
      "キ": 1808,
      "ク": 1809,
      "ケ": 1810,
      "コ": 1811,
      "サ": 1812,
      "シ": 1813,
      "ス": 1814,
      "セ": 1815,
      "ソ": 1816,
      "タ": 1817,
      "チ": 1818,
      "ッ": 1819,
      "テ": 1820,
      "ト": 1821,
      "ナ": 1822,
      "ニ": 1823,
      "ヌ": 1824,
      "ネ": 1825,
      "ノ": 1826,
      "ハ": 1827,
      "ヒ": 1828,
      "フ": 1829,
      "ヘ": 1830,
      "ホ": 1831,
      "マ": 1832,
      "ミ": 1833,
      "ム": 1834,
      "メ": 1835,
      "モ": 1836,
      "ャ": 1837,
      "ヤ": 1838,
      "ュ": 1839,
      "ユ": 1840,
      "ョ": 1841,
      "ヨ": 1842,
      "ラ": 1843,
      "リ": 1844,
      "ル": 1845,
      "レ": 1846,
      "ロ": 1847,
      "ワ": 1848,
      "ン": 1849,
      "ヶ": 1850,
      "・": 1851,
      "ー": 1852,
      "ㄌ": 1853,
      "ㄑ": 1854,
      "ㄒ": 1855,
      "ㄓ": 1856,
      "ㄕ": 1857,
      "ㄘ": 1858,
      "ㄚ": 1859,
      "ㄢ": 1860,
      "ㄣ": 1861,
      "ㄤ": 1862,
      "ㄧ": 1863,
      "ㄨ": 1864,
      "ㄩ": 1865,
      "一": 1866,
      "丁": 1867,
      "七": 1868,
      "万": 1869,
      "三": 1870,
      "上": 1871,
      "下": 1872,
      "不": 1873,
      "与": 1874,
      "且": 1875,
      "世": 1876,
      "丙": 1877,
      "业": 1878,
      "东": 1879,
      "两": 1880,
      "並": 1881,
      "个": 1882,
      "中": 1883,
      "丸": 1884,
      "丹": 1885,
      "为": 1886,
      "主": 1887,
      "丽": 1888,
      "乃": 1889,
      "久": 1890,
      "么": 1891,
      "义": 1892,
      "之": 1893,
      "乌": 1894,
      "乐": 1895,
      "乙": 1896,
      "九": 1897,
      "也": 1898,
      "书": 1899,
      "乳": 1900,
      "乾": 1901,
      "亂": 1902,
      "亅": 1903,
      "了": 1904,
      "予": 1905,
      "争": 1906,
      "事": 1907,
      "二": 1908,
      "于": 1909,
      "云": 1910,
      "五": 1911,
      "井": 1912,
      "亚": 1913,
      "些": 1914,
      "亜": 1915,
      "亞": 1916,
      "亡": 1917,
      "亣": 1918,
      "交": 1919,
      "亦": 1920,
      "京": 1921,
      "亭": 1922,
      "亮": 1923,
      "人": 1924,
      "亻": 1925,
      "什": 1926,
      "仁": 1927,
      "今": 1928,
      "介": 1929,
      "仏": 1930,
      "仑": 1931,
      "仔": 1932,
      "他": 1933,
      "付": 1934,
      "仙": 1935,
      "仝": 1936,
      "代": 1937,
      "令": 1938,
      "以": 1939,
      "们": 1940,
      "仰": 1941,
      "仲": 1942,
      "件": 1943,
      "任": 1944,
      "伊": 1945,
      "伎": 1946,
      "伏": 1947,
      "伐": 1948,
      "休": 1949,
      "伙": 1950,
      "会": 1951,
      "伟": 1952,
      "传": 1953,
      "伪": 1954,
      "伯": 1955,
      "伸": 1956,
      "伽": 1957,
      "位": 1958,
      "住": 1959,
      "佐": 1960,
      "体": 1961,
      "佔": 1962,
      "何": 1963,
      "佘": 1964,
      "余": 1965,
      "佛": 1966,
      "作": 1967,
      "你": 1968,
      "佩": 1969,
      "佳": 1970,
      "使": 1971,
      "來": 1972,
      "侍": 1973,
      "侘": 1974,
      "供": 1975,
      "依": 1976,
      "侧": 1977,
      "侯": 1978,
      "便": 1979,
      "促": 1980,
      "俊": 1981,
      "俗": 1982,
      "保": 1983,
      "俟": 1984,
      "信": 1985,
      "俭": 1986,
      "修": 1987,
      "倉": 1988,
      "倍": 1989,
      "候": 1990,
      "借": 1991,
      "値": 1992,
      "倩": 1993,
      "倪": 1994,
      "倫": 1995,
      "假": 1996,
      "偉": 1997,
      "偏": 1998,
      "做": 1999,
      "健": 2000,
      "傑": 2001,
      "備": 2002,
      "傣": 2003,
      "傳": 2004,
      "働": 2005,
      "僕": 2006,
      "儀": 2007,
      "億": 2008,
      "儒": 2009,
      "優": 2010,
      "儿": 2011,
      "兀": 2012,
      "元": 2013,
      "兇": 2014,
      "先": 2015,
      "光": 2016,
      "克": 2017,
      "児": 2018,
      "兒": 2019,
      "党": 2020,
      "兜": 2021,
      "入": 2022,
      "內": 2023,
      "全": 2024,
      "八": 2025,
      "公": 2026,
      "六": 2027,
      "兰": 2028,
      "共": 2029,
      "关": 2030,
      "兴": 2031,
      "兵": 2032,
      "其": 2033,
      "典": 2034,
      "养": 2035,
      "兼": 2036,
      "冀": 2037,
      "冂": 2038,
      "内": 2039,
      "円": 2040,
      "再": 2041,
      "冒": 2042,
      "写": 2043,
      "军": 2044,
      "冨": 2045,
      "冬": 2046,
      "冰": 2047,
      "决": 2048,
      "冶": 2049,
      "凍": 2050,
      "凰": 2051,
      "凱": 2052,
      "出": 2053,
      "函": 2054,
      "刀": 2055,
      "刃": 2056,
      "分": 2057,
      "切": 2058,
      "刊": 2059,
      "列": 2060,
      "刘": 2061,
      "初": 2062,
      "判": 2063,
      "別": 2064,
      "利": 2065,
      "到": 2066,
      "制": 2067,
      "刻": 2068,
      "剅": 2069,
      "則": 2070,
      "剋": 2071,
      "前": 2072,
      "剑": 2073,
      "剔": 2074,
      "剛": 2075,
      "剣": 2076,
      "剱": 2077,
      "創": 2078,
      "劈": 2079,
      "劍": 2080,
      "力": 2081,
      "功": 2082,
      "加": 2083,
      "务": 2084,
      "动": 2085,
      "助": 2086,
      "努": 2087,
      "励": 2088,
      "劳": 2089,
      "勇": 2090,
      "勉": 2091,
      "動": 2092,
      "務": 2093,
      "勝": 2094,
      "勢": 2095,
      "勤": 2096,
      "勲": 2097,
      "勳": 2098,
      "勸": 2099,
      "勾": 2100,
      "勿": 2101,
      "化": 2102,
      "北": 2103,
      "匙": 2104,
      "匯": 2105,
      "区": 2106,
      "區": 2107,
      "十": 2108,
      "千": 2109,
      "升": 2110,
      "午": 2111,
      "半": 2112,
      "华": 2113,
      "卓": 2114,
      "協": 2115,
      "单": 2116,
      "南": 2117,
      "単": 2118,
      "博": 2119,
      "卜": 2120,
      "卞": 2121,
      "占": 2122,
      "卡": 2123,
      "卢": 2124,
      "卵": 2125,
      "厂": 2126,
      "历": 2127,
      "厚": 2128,
      "原": 2129,
      "厳": 2130,
      "去": 2131,
      "县": 2132,
      "参": 2133,
      "參": 2134,
      "又": 2135,
      "叉": 2136,
      "及": 2137,
      "友": 2138,
      "双": 2139,
      "反": 2140,
      "収": 2141,
      "叔": 2142,
      "受": 2143,
      "叟": 2144,
      "叢": 2145,
      "口": 2146,
      "古": 2147,
      "句": 2148,
      "只": 2149,
      "可": 2150,
      "台": 2151,
      "史": 2152,
      "叶": 2153,
      "号": 2154,
      "司": 2155,
      "吃": 2156,
      "合": 2157,
      "吉": 2158,
      "同": 2159,
      "名": 2160,
      "后": 2161,
      "向": 2162,
      "吕": 2163,
      "君": 2164,
      "吝": 2165,
      "吟": 2166,
      "吧": 2167,
      "吳": 2168,
      "吴": 2169,
      "吸": 2170,
      "吹": 2171,
      "吾": 2172,
      "呂": 2173,
      "呈": 2174,
      "周": 2175,
      "味": 2176,
      "呼": 2177,
      "命": 2178,
      "咋": 2179,
      "和": 2180,
      "咒": 2181,
      "咖": 2182,
      "咨": 2183,
      "咲": 2184,
      "哀": 2185,
      "品": 2186,
      "哈": 2187,
      "哉": 2188,
      "員": 2189,
      "哥": 2190,
      "哲": 2191,
      "唐": 2192,
      "唯": 2193,
      "商": 2194,
      "問": 2195,
      "啓": 2196,
      "啟": 2197,
      "啡": 2198,
      "啦": 2199,
      "喃": 2200,
      "善": 2201,
      "喆": 2202,
      "喇": 2203,
      "喜": 2204,
      "單": 2205,
      "営": 2206,
      "嘉": 2207,
      "嘗": 2208,
      "嘛": 2209,
      "噌": 2210,
      "器": 2211,
      "嚎": 2212,
      "囁": 2213,
      "囘": 2214,
      "四": 2215,
      "回": 2216,
      "因": 2217,
      "団": 2218,
      "囧": 2219,
      "囬": 2220,
      "园": 2221,
      "囯": 2222,
      "囲": 2223,
      "围": 2224,
      "国": 2225,
      "图": 2226,
      "圃": 2227,
      "國": 2228,
      "園": 2229,
      "圖": 2230,
      "團": 2231,
      "土": 2232,
      "圣": 2233,
      "在": 2234,
      "地": 2235,
      "坂": 2236,
      "均": 2237,
      "坊": 2238,
      "坐": 2239,
      "坡": 2240,
      "坤": 2241,
      "垂": 2242,
      "型": 2243,
      "垣": 2244,
      "城": 2245,
      "埔": 2246,
      "域": 2247,
      "培": 2248,
      "基": 2249,
      "埼": 2250,
      "堀": 2251,
      "堂": 2252,
      "堯": 2253,
      "報": 2254,
      "場": 2255,
      "塊": 2256,
      "塔": 2257,
      "塚": 2258,
      "塞": 2259,
      "塩": 2260,
      "塽": 2261,
      "境": 2262,
      "墓": 2263,
      "墨": 2264,
      "壤": 2265,
      "士": 2266,
      "声": 2267,
      "売": 2268,
      "壳": 2269,
      "壽": 2270,
      "复": 2271,
      "夏": 2272,
      "夕": 2273,
      "外": 2274,
      "多": 2275,
      "夜": 2276,
      "够": 2277,
      "夢": 2278,
      "大": 2279,
      "天": 2280,
      "太": 2281,
      "夫": 2282,
      "央": 2283,
      "失": 2284,
      "头": 2285,
      "夷": 2286,
      "夾": 2287,
      "奇": 2288,
      "奈": 2289,
      "奉": 2290,
      "奕": 2291,
      "奖": 2292,
      "套": 2293,
      "奥": 2294,
      "奮": 2295,
      "女": 2296,
      "奶": 2297,
      "好": 2298,
      "如": 2299,
      "妃": 2300,
      "妏": 2301,
      "妖": 2302,
      "妙": 2303,
      "妮": 2304,
      "妹": 2305,
      "妻": 2306,
      "姊": 2307,
      "始": 2308,
      "姑": 2309,
      "委": 2310,
      "姚": 2311,
      "姜": 2312,
      "姫": 2313,
      "威": 2314,
      "娃": 2315,
      "娜": 2316,
      "婉": 2317,
      "婦": 2318,
      "媛": 2319,
      "媽": 2320,
      "嬌": 2321,
      "孃": 2322,
      "子": 2323,
      "孔": 2324,
      "字": 2325,
      "存": 2326,
      "孙": 2327,
      "孚": 2328,
      "孝": 2329,
      "孟": 2330,
      "季": 2331,
      "学": 2332,
      "孩": 2333,
      "孫": 2334,
      "學": 2335,
      "宁": 2336,
      "宅": 2337,
      "宇": 2338,
      "守": 2339,
      "安": 2340,
      "宋": 2341,
      "完": 2342,
      "宏": 2343,
      "宓": 2344,
      "宕": 2345,
      "宗": 2346,
      "官": 2347,
      "宙": 2348,
      "定": 2349,
      "实": 2350,
      "実": 2351,
      "客": 2352,
      "宣": 2353,
      "室": 2354,
      "宮": 2355,
      "宰": 2356,
      "害": 2357,
      "家": 2358,
      "容": 2359,
      "宿": 2360,
      "寄": 2361,
      "富": 2362,
      "寒": 2363,
      "寓": 2364,
      "寛": 2365,
      "察": 2366,
      "實": 2367,
      "寧": 2368,
      "寶": 2369,
      "对": 2370,
      "寺": 2371,
      "対": 2372,
      "寿": 2373,
      "封": 2374,
      "専": 2375,
      "射": 2376,
      "專": 2377,
      "尊": 2378,
      "尋": 2379,
      "對": 2380,
      "小": 2381,
      "少": 2382,
      "尔": 2383,
      "尚": 2384,
      "尝": 2385,
      "尭": 2386,
      "尸": 2387,
      "尹": 2388,
      "尼": 2389,
      "尾": 2390,
      "局": 2391,
      "屁": 2392,
      "居": 2393,
      "屋": 2394,
      "展": 2395,
      "属": 2396,
      "履": 2397,
      "山": 2398,
      "岁": 2399,
      "岑": 2400,
      "岛": 2401,
      "岡": 2402,
      "岩": 2403,
      "岳": 2404,
      "峡": 2405,
      "峨": 2406,
      "峰": 2407,
      "島": 2408,
      "峻": 2409,
      "崇": 2410,
      "崎": 2411,
      "崔": 2412,
      "崛": 2413,
      "崧": 2414,
      "崴": 2415,
      "嵯": 2416,
      "嶋": 2417,
      "嶺": 2418,
      "巖": 2419,
      "川": 2420,
      "州": 2421,
      "巢": 2422,
      "工": 2423,
      "左": 2424,
      "巧": 2425,
      "差": 2426,
      "己": 2427,
      "巳": 2428,
      "巴": 2429,
      "巻": 2430,
      "市": 2431,
      "布": 2432,
      "帅": 2433,
      "帆": 2434,
      "师": 2435,
      "希": 2436,
      "帝": 2437,
      "帥": 2438,
      "带": 2439,
      "師": 2440,
      "帯": 2441,
      "帶": 2442,
      "常": 2443,
      "帽": 2444,
      "幅": 2445,
      "幕": 2446,
      "幡": 2447,
      "幫": 2448,
      "干": 2449,
      "平": 2450,
      "年": 2451,
      "幸": 2452,
      "幹": 2453,
      "幻": 2454,
      "幽": 2455,
      "幾": 2456,
      "广": 2457,
      "庁": 2458,
      "広": 2459,
      "庄": 2460,
      "序": 2461,
      "庙": 2462,
      "府": 2463,
      "度": 2464,
      "座": 2465,
      "庫": 2466,
      "庭": 2467,
      "庵": 2468,
      "庶": 2469,
      "康": 2470,
      "庾": 2471,
      "廈": 2472,
      "廉": 2473,
      "廊": 2474,
      "廓": 2475,
      "廟": 2476,
      "廣": 2477,
      "延": 2478,
      "建": 2479,
      "廻": 2480,
      "廽": 2481,
      "弁": 2482,
      "异": 2483,
      "弄": 2484,
      "弅": 2485,
      "式": 2486,
      "弓": 2487,
      "弗": 2488,
      "弘": 2489,
      "张": 2490,
      "弥": 2491,
      "弦": 2492,
      "張": 2493,
      "強": 2494,
      "弹": 2495,
      "强": 2496,
      "弾": 2497,
      "彈": 2498,
      "归": 2499,
      "当": 2500,
      "彤": 2501,
      "彥": 2502,
      "彦": 2503,
      "彪": 2504,
      "影": 2505,
      "彼": 2506,
      "往": 2507,
      "征": 2508,
      "待": 2509,
      "很": 2510,
      "律": 2511,
      "後": 2512,
      "徐": 2513,
      "徒": 2514,
      "得": 2515,
      "從": 2516,
      "御": 2517,
      "復": 2518,
      "徳": 2519,
      "徵": 2520,
      "德": 2521,
      "徽": 2522,
      "心": 2523,
      "忌": 2524,
      "忍": 2525,
      "志": 2526,
      "忘": 2527,
      "忠": 2528,
      "快": 2529,
      "念": 2530,
      "怖": 2531,
      "思": 2532,
      "怡": 2533,
      "急": 2534,
      "性": 2535,
      "总": 2536,
      "恋": 2537,
      "恐": 2538,
      "恭": 2539,
      "息": 2540,
      "恵": 2541,
      "悠": 2542,
      "悪": 2543,
      "情": 2544,
      "惜": 2545,
      "惠": 2546,
      "惡": 2547,
      "想": 2548,
      "意": 2549,
      "愛": 2550,
      "感": 2551,
      "愿": 2552,
      "慈": 2553,
      "慢": 2554,
      "慧": 2555,
      "慮": 2556,
      "慶": 2557,
      "憲": 2558,
      "應": 2559,
      "懷": 2560,
      "戀": 2561,
      "戊": 2562,
      "戌": 2563,
      "戎": 2564,
      "成": 2565,
      "我": 2566,
      "战": 2567,
      "戟": 2568,
      "戦": 2569,
      "戯": 2570,
      "戰": 2571,
      "戲": 2572,
      "戶": 2573,
      "户": 2574,
      "戸": 2575,
      "房": 2576,
      "所": 2577,
      "扇": 2578,
      "手": 2579,
      "才": 2580,
      "打": 2581,
      "托": 2582,
      "扣": 2583,
      "扬": 2584,
      "承": 2585,
      "技": 2586,
      "把": 2587,
      "折": 2588,
      "抛": 2589,
      "抠": 2590,
      "护": 2591,
      "报": 2592,
      "披": 2593,
      "抵": 2594,
      "抹": 2595,
      "拂": 2596,
      "拉": 2597,
      "拌": 2598,
      "拓": 2599,
      "拙": 2600,
      "拜": 2601,
      "拨": 2602,
      "拭": 2603,
      "拯": 2604,
      "拿": 2605,
      "挂": 2606,
      "指": 2607,
      "按": 2608,
      "挑": 2609,
      "挙": 2610,
      "掃": 2611,
      "授": 2612,
      "掌": 2613,
      "掐": 2614,
      "掘": 2615,
      "探": 2616,
      "推": 2617,
      "掩": 2618,
      "措": 2619,
      "掸": 2620,
      "揚": 2621,
      "搏": 2622,
      "搖": 2623,
      "搜": 2624,
      "搞": 2625,
      "搯": 2626,
      "携": 2627,
      "摘": 2628,
      "摩": 2629,
      "摺": 2630,
      "撃": 2631,
      "撥": 2632,
      "播": 2633,
      "撮": 2634,
      "擇": 2635,
      "擒": 2636,
      "攀": 2637,
      "攔": 2638,
      "支": 2639,
      "攻": 2640,
      "放": 2641,
      "政": 2642,
      "故": 2643,
      "敎": 2644,
      "敏": 2645,
      "救": 2646,
      "教": 2647,
      "散": 2648,
      "敦": 2649,
      "敬": 2650,
      "文": 2651,
      "斉": 2652,
      "斋": 2653,
      "斎": 2654,
      "斗": 2655,
      "料": 2656,
      "斛": 2657,
      "斩": 2658,
      "斬": 2659,
      "断": 2660,
      "斯": 2661,
      "新": 2662,
      "方": 2663,
      "於": 2664,
      "施": 2665,
      "旅": 2666,
      "旋": 2667,
      "族": 2668,
      "旗": 2669,
      "无": 2670,
      "既": 2671,
      "日": 2672,
      "旧": 2673,
      "早": 2674,
      "旱": 2675,
      "时": 2676,
      "旺": 2677,
      "旽": 2678,
      "昂": 2679,
      "昆": 2680,
      "昇": 2681,
      "昌": 2682,
      "明": 2683,
      "易": 2684,
      "昔": 2685,
      "星": 2686,
      "映": 2687,
      "春": 2688,
      "昭": 2689,
      "是": 2690,
      "時": 2691,
      "晃": 2692,
      "晨": 2693,
      "晩": 2694,
      "普": 2695,
      "景": 2696,
      "晴": 2697,
      "晶": 2698,
      "智": 2699,
      "暁": 2700,
      "暦": 2701,
      "暨": 2702,
      "曉": 2703,
      "曜": 2704,
      "曰": 2705,
      "曲": 2706,
      "書": 2707,
      "曹": 2708,
      "曽": 2709,
      "曾": 2710,
      "最": 2711,
      "會": 2712,
      "月": 2713,
      "有": 2714,
      "朗": 2715,
      "望": 2716,
      "朝": 2717,
      "期": 2718,
      "朧": 2719,
      "木": 2720,
      "未": 2721,
      "末": 2722,
      "本": 2723,
      "朮": 2724,
      "术": 2725,
      "朱": 2726,
      "朴": 2727,
      "权": 2728,
      "杉": 2729,
      "李": 2730,
      "杏": 2731,
      "村": 2732,
      "杖": 2733,
      "杜": 2734,
      "杞": 2735,
      "束": 2736,
      "条": 2737,
      "来": 2738,
      "杨": 2739,
      "杰": 2740,
      "東": 2741,
      "松": 2742,
      "板": 2743,
      "极": 2744,
      "析": 2745,
      "林": 2746,
      "果": 2747,
      "枝": 2748,
      "枣": 2749,
      "枪": 2750,
      "枯": 2751,
      "枳": 2752,
      "架": 2753,
      "枸": 2754,
      "柄": 2755,
      "柏": 2756,
      "柑": 2757,
      "染": 2758,
      "柔": 2759,
      "柚": 2760,
      "柱": 2761,
      "柳": 2762,
      "柴": 2763,
      "査": 2764,
      "栄": 2765,
      "标": 2766,
      "树": 2767,
      "校": 2768,
      "株": 2769,
      "根": 2770,
      "桂": 2771,
      "桃": 2772,
      "案": 2773,
      "桐": 2774,
      "桑": 2775,
      "桥": 2776,
      "梁": 2777,
      "梅": 2778,
      "梓": 2779,
      "梔": 2780,
      "梗": 2781,
      "梢": 2782,
      "梨": 2783,
      "检": 2784,
      "棋": 2785,
      "棠": 2786,
      "森": 2787,
      "椎": 2788,
      "椒": 2789,
      "椙": 2790,
      "椛": 2791,
      "楊": 2792,
      "楝": 2793,
      "楠": 2794,
      "業": 2795,
      "極": 2796,
      "楼": 2797,
      "楽": 2798,
      "榆": 2799,
      "榔": 2800,
      "榜": 2801,
      "榧": 2802,
      "榮": 2803,
      "榴": 2804,
      "槍": 2805,
      "槐": 2806,
      "槑": 2807,
      "樂": 2808,
      "樓": 2809,
      "樣": 2810,
      "横": 2811,
      "樫": 2812,
      "樵": 2813,
      "樸": 2814,
      "樹": 2815,
      "橋": 2816,
      "橘": 2817,
      "橙": 2818,
      "機": 2819,
      "檔": 2820,
      "檳": 2821,
      "欠": 2822,
      "次": 2823,
      "欧": 2824,
      "欲": 2825,
      "欽": 2826,
      "款": 2827,
      "歌": 2828,
      "正": 2829,
      "步": 2830,
      "武": 2831,
      "歩": 2832,
      "歯": 2833,
      "歳": 2834,
      "歴": 2835,
      "歸": 2836,
      "死": 2837,
      "殊": 2838,
      "残": 2839,
      "殘": 2840,
      "段": 2841,
      "殷": 2842,
      "殺": 2843,
      "殿": 2844,
      "毁": 2845,
      "母": 2846,
      "毒": 2847,
      "比": 2848,
      "毘": 2849,
      "毛": 2850,
      "氏": 2851,
      "民": 2852,
      "気": 2853,
      "氣": 2854,
      "水": 2855,
      "永": 2856,
      "氾": 2857,
      "汁": 2858,
      "求": 2859,
      "汉": 2860,
      "汝": 2861,
      "江": 2862,
      "池": 2863,
      "汪": 2864,
      "決": 2865,
      "汽": 2866,
      "沈": 2867,
      "沉": 2868,
      "沒": 2869,
      "沖": 2870,
      "沙": 2871,
      "沟": 2872,
      "没": 2873,
      "沢": 2874,
      "沤": 2875,
      "河": 2876,
      "治": 2877,
      "沼": 2878,
      "沽": 2879,
      "泉": 2880,
      "泊": 2881,
      "法": 2882,
      "泛": 2883,
      "波": 2884,
      "注": 2885,
      "泰": 2886,
      "泱": 2887,
      "泳": 2888,
      "洋": 2889,
      "洗": 2890,
      "洙": 2891,
      "洚": 2892,
      "洛": 2893,
      "洞": 2894,
      "津": 2895,
      "洪": 2896,
      "洲": 2897,
      "活": 2898,
      "派": 2899,
      "流": 2900,
      "浄": 2901,
      "浅": 2902,
      "济": 2903,
      "浚": 2904,
      "浜": 2905,
      "浦": 2906,
      "浩": 2907,
      "浪": 2908,
      "浮": 2909,
      "海": 2910,
      "消": 2911,
      "涉": 2912,
      "涙": 2913,
      "涼": 2914,
      "淇": 2915,
      "淑": 2916,
      "淚": 2917,
      "淡": 2918,
      "淨": 2919,
      "淫": 2920,
      "淮": 2921,
      "深": 2922,
      "淳": 2923,
      "淵": 2924,
      "淸": 2925,
      "淺": 2926,
      "清": 2927,
      "渉": 2928,
      "渋": 2929,
      "減": 2930,
      "渝": 2931,
      "渡": 2932,
      "温": 2933,
      "港": 2934,
      "游": 2935,
      "渾": 2936,
      "湄": 2937,
      "湖": 2938,
      "湘": 2939,
      "湛": 2940,
      "湯": 2941,
      "湾": 2942,
      "満": 2943,
      "源": 2944,
      "溜": 2945,
      "溪": 2946,
      "溫": 2947,
      "滅": 2948,
      "滑": 2949,
      "滝": 2950,
      "满": 2951,
      "滾": 2952,
      "漆": 2953,
      "漢": 2954,
      "漫": 2955,
      "漬": 2956,
      "潘": 2957,
      "潤": 2958,
      "澤": 2959,
      "澧": 2960,
      "澳": 2961,
      "濃": 2962,
      "濟": 2963,
      "濡": 2964,
      "濫": 2965,
      "濬": 2966,
      "瀉": 2967,
      "瀟": 2968,
      "灘": 2969,
      "灣": 2970,
      "火": 2971,
      "灯": 2972,
      "灶": 2973,
      "灸": 2974,
      "炊": 2975,
      "炎": 2976,
      "炒": 2977,
      "炙": 2978,
      "炮": 2979,
      "炳": 2980,
      "為": 2981,
      "烈": 2982,
      "烏": 2983,
      "無": 2984,
      "焰": 2985,
      "焱": 2986,
      "然": 2987,
      "煊": 2988,
      "煙": 2989,
      "煞": 2990,
      "煥": 2991,
      "照": 2992,
      "煬": 2993,
      "煮": 2994,
      "熊": 2995,
      "熙": 2996,
      "熟": 2997,
      "熱": 2998,
      "燁": 2999,
      "燃": 3000,
      "營": 3001,
      "爆": 3002,
      "爱": 3003,
      "父": 3004,
      "爷": 3005,
      "爸": 3006,
      "爺": 3007,
      "爾": 3008,
      "片": 3009,
      "版": 3010,
      "牙": 3011,
      "牛": 3012,
      "牡": 3013,
      "物": 3014,
      "特": 3015,
      "牽": 3016,
      "犀": 3017,
      "犬": 3018,
      "狂": 3019,
      "狐": 3020,
      "狗": 3021,
      "狙": 3022,
      "狩": 3023,
      "狮": 3024,
      "狼": 3025,
      "猛": 3026,
      "猪": 3027,
      "猫": 3028,
      "献": 3029,
      "猱": 3030,
      "猶": 3031,
      "猿": 3032,
      "獎": 3033,
      "獨": 3034,
      "獸": 3035,
      "玄": 3036,
      "玉": 3037,
      "王": 3038,
      "玫": 3039,
      "玲": 3040,
      "珈": 3041,
      "珊": 3042,
      "珍": 3043,
      "珠": 3044,
      "珪": 3045,
      "班": 3046,
      "現": 3047,
      "球": 3048,
      "理": 3049,
      "琉": 3050,
      "琛": 3051,
      "琤": 3052,
      "琪": 3053,
      "琲": 3054,
      "琴": 3055,
      "瑚": 3056,
      "瑛": 3057,
      "瑜": 3058,
      "瑞": 3059,
      "瑟": 3060,
      "瑤": 3061,
      "瑪": 3062,
      "瑰": 3063,
      "環": 3064,
      "瓊": 3065,
      "瓜": 3066,
      "瓦": 3067,
      "甘": 3068,
      "生": 3069,
      "産": 3070,
      "用": 3071,
      "甫": 3072,
      "田": 3073,
      "由": 3074,
      "甲": 3075,
      "申": 3076,
      "电": 3077,
      "男": 3078,
      "町": 3079,
      "画": 3080,
      "畅": 3081,
      "界": 3082,
      "留": 3083,
      "畢": 3084,
      "略": 3085,
      "番": 3086,
      "畫": 3087,
      "異": 3088,
      "畵": 3089,
      "當": 3090,
      "疆": 3091,
      "疊": 3092,
      "疎": 3093,
      "疤": 3094,
      "痒": 3095,
      "痕": 3096,
      "痛": 3097,
      "痴": 3098,
      "癯": 3099,
      "発": 3100,
      "登": 3101,
      "白": 3102,
      "百": 3103,
      "的": 3104,
      "皆": 3105,
      "皇": 3106,
      "皓": 3107,
      "皮": 3108,
      "盆": 3109,
      "益": 3110,
      "盐": 3111,
      "盛": 3112,
      "盟": 3113,
      "盤": 3114,
      "盥": 3115,
      "盧": 3116,
      "目": 3117,
      "直": 3118,
      "相": 3119,
      "省": 3120,
      "眉": 3121,
      "県": 3122,
      "真": 3123,
      "眼": 3124,
      "眾": 3125,
      "睛": 3126,
      "睡": 3127,
      "督": 3128,
      "瞎": 3129,
      "瞳": 3130,
      "矗": 3131,
      "矢": 3132,
      "矣": 3133,
      "知": 3134,
      "矩": 3135,
      "石": 3136,
      "砂": 3137,
      "研": 3138,
      "破": 3139,
      "硏": 3140,
      "硝": 3141,
      "碁": 3142,
      "碇": 3143,
      "碑": 3144,
      "碗": 3145,
      "碟": 3146,
      "碣": 3147,
      "碧": 3148,
      "磁": 3149,
      "磐": 3150,
      "磨": 3151,
      "磯": 3152,
      "礁": 3153,
      "礼": 3154,
      "社": 3155,
      "祀": 3156,
      "祐": 3157,
      "祕": 3158,
      "祖": 3159,
      "神": 3160,
      "祠": 3161,
      "祥": 3162,
      "祭": 3163,
      "祯": 3164,
      "禁": 3165,
      "禄": 3166,
      "禎": 3167,
      "福": 3168,
      "禧": 3169,
      "禪": 3170,
      "禮": 3171,
      "禰": 3172,
      "禹": 3173,
      "禽": 3174,
      "禾": 3175,
      "秀": 3176,
      "私": 3177,
      "秂": 3178,
      "秉": 3179,
      "秋": 3180,
      "科": 3181,
      "秘": 3182,
      "秦": 3183,
      "程": 3184,
      "稔": 3185,
      "稚": 3186,
      "種": 3187,
      "稲": 3188,
      "稽": 3189,
      "穀": 3190,
      "穂": 3191,
      "穆": 3192,
      "積": 3193,
      "穎": 3194,
      "究": 3195,
      "穷": 3196,
      "空": 3197,
      "穿": 3198,
      "突": 3199,
      "窗": 3200,
      "窟": 3201,
      "竈": 3202,
      "立": 3203,
      "站": 3204,
      "竜": 3205,
      "竞": 3206,
      "章": 3207,
      "童": 3208,
      "端": 3209,
      "競": 3210,
      "竹": 3211,
      "笏": 3212,
      "笑": 3213,
      "笔": 3214,
      "第": 3215,
      "筆": 3216,
      "等": 3217,
      "筑": 3218,
      "筒": 3219,
      "策": 3220,
      "筷": 3221,
      "简": 3222,
      "箋": 3223,
      "箍": 3224,
      "箏": 3225,
      "管": 3226,
      "箸": 3227,
      "節": 3228,
      "篆": 3229,
      "篠": 3230,
      "簡": 3231,
      "籌": 3232,
      "籜": 3233,
      "米": 3234,
      "粉": 3235,
      "粗": 3236,
      "粤": 3237,
      "粥": 3238,
      "粵": 3239,
      "精": 3240,
      "糖": 3241,
      "糸": 3242,
      "系": 3243,
      "紀": 3244,
      "約": 3245,
      "紅": 3246,
      "紋": 3247,
      "納": 3248,
      "純": 3249,
      "紘": 3250,
      "紙": 3251,
      "素": 3252,
      "紡": 3253,
      "索": 3254,
      "紫": 3255,
      "細": 3256,
      "紹": 3257,
      "終": 3258,
      "絃": 3259,
      "組": 3260,
      "経": 3261,
      "結": 3262,
      "給": 3263,
      "絨": 3264,
      "絫": 3265,
      "統": 3266,
      "絲": 3267,
      "絵": 3268,
      "絹": 3269,
      "經": 3270,
      "続": 3271,
      "維": 3272,
      "綱": 3273,
      "綸": 3274,
      "綿": 3275,
      "総": 3276,
      "線": 3277,
      "緩": 3278,
      "縄": 3279,
      "縣": 3280,
      "縫": 3281,
      "總": 3282,
      "織": 3283,
      "繩": 3284,
      "纂": 3285,
      "红": 3286,
      "级": 3287,
      "纳": 3288,
      "纵": 3289,
      "纶": 3290,
      "细": 3291,
      "绍": 3292,
      "经": 3293,
      "绒": 3294,
      "结": 3295,
      "绛": 3296,
      "绝": 3297,
      "统": 3298,
      "绥": 3299,
      "续": 3300,
      "维": 3301,
      "缺": 3302,
      "罗": 3303,
      "罨": 3304,
      "置": 3305,
      "署": 3306,
      "羁": 3307,
      "羅": 3308,
      "羊": 3309,
      "羌": 3310,
      "美": 3311,
      "羡": 3312,
      "群": 3313,
      "義": 3314,
      "羽": 3315,
      "翁": 3316,
      "習": 3317,
      "翘": 3318,
      "翰": 3319,
      "翻": 3320,
      "翼": 3321,
      "耀": 3322,
      "老": 3323,
      "考": 3324,
      "者": 3325,
      "耉": 3326,
      "而": 3327,
      "耐": 3328,
      "耦": 3329,
      "耳": 3330,
      "耶": 3331,
      "聂": 3332,
      "职": 3333,
      "聖": 3334,
      "聚": 3335,
      "聞": 3336,
      "聯": 3337,
      "聰": 3338,
      "聲": 3339,
      "聶": 3340,
      "聽": 3341,
      "聾": 3342,
      "聿": 3343,
      "肉": 3344,
      "肖": 3345,
      "股": 3346,
      "肤": 3347,
      "肥": 3348,
      "育": 3349,
      "胆": 3350,
      "背": 3351,
      "胎": 3352,
      "胞": 3353,
      "胡": 3354,
      "胶": 3355,
      "能": 3356,
      "脂": 3357,
      "脈": 3358,
      "脊": 3359,
      "脚": 3360,
      "脩": 3361,
      "脫": 3362,
      "脱": 3363,
      "腐": 3364,
      "腕": 3365,
      "腥": 3366,
      "腹": 3367,
      "腺": 3368,
      "腾": 3369,
      "膏": 3370,
      "膾": 3371,
      "臣": 3372,
      "臨": 3373,
      "自": 3374,
      "臭": 3375,
      "臯": 3376,
      "至": 3377,
      "致": 3378,
      "臺": 3379,
      "臼": 3380,
      "與": 3381,
      "興": 3382,
      "舉": 3383,
      "舊": 3384,
      "舜": 3385,
      "舞": 3386,
      "舟": 3387,
      "航": 3388,
      "船": 3389,
      "艘": 3390,
      "良": 3391,
      "色": 3392,
      "艺": 3393,
      "艽": 3394,
      "艾": 3395,
      "芍": 3396,
      "芎": 3397,
      "芒": 3398,
      "芝": 3399,
      "芡": 3400,
      "芥": 3401,
      "芦": 3402,
      "芩": 3403,
      "芫": 3404,
      "芬": 3405,
      "芭": 3406,
      "花": 3407,
      "芳": 3408,
      "芷": 3409,
      "芽": 3410,
      "苇": 3411,
      "苍": 3412,
      "苏": 3413,
      "苓": 3414,
      "苔": 3415,
      "苚": 3416,
      "苡": 3417,
      "若": 3418,
      "苦": 3419,
      "苧": 3420,
      "英": 3421,
      "范": 3422,
      "茅": 3423,
      "茜": 3424,
      "茯": 3425,
      "茱": 3426,
      "茴": 3427,
      "茵": 3428,
      "茶": 3429,
      "茸": 3430,
      "茹": 3431,
      "荆": 3432,
      "荇": 3433,
      "草": 3434,
      "荑": 3435,
      "荒": 3436,
      "荖": 3437,
      "荫": 3438,
      "药": 3439,
      "荳": 3440,
      "荷": 3441,
      "莉": 3442,
      "莊": 3443,
      "莧": 3444,
      "莨": 3445,
      "莪": 3446,
      "莫": 3447,
      "莱": 3448,
      "莲": 3449,
      "莽": 3450,
      "菀": 3451,
      "菅": 3452,
      "菊": 3453,
      "菔": 3454,
      "菖": 3455,
      "菜": 3456,
      "華": 3457,
      "菱": 3458,
      "菴": 3459,
      "菹": 3460,
      "萆": 3461,
      "萊": 3462,
      "萧": 3463,
      "萨": 3464,
      "萬": 3465,
      "萸": 3466,
      "落": 3467,
      "葆": 3468,
      "葉": 3469,
      "著": 3470,
      "葛": 3471,
      "葱": 3472,
      "葵": 3473,
      "葶": 3474,
      "蒐": 3475,
      "蒙": 3476,
      "蒜": 3477,
      "蒡": 3478,
      "蒲": 3479,
      "蒼": 3480,
      "蒿": 3481,
      "蓀": 3482,
      "蓉": 3483,
      "蓑": 3484,
      "蓝": 3485,
      "蓟": 3486,
      "蓮": 3487,
      "蓯": 3488,
      "蔡": 3489,
      "蔵": 3490,
      "蔻": 3491,
      "蕤": 3492,
      "蕩": 3493,
      "蕭": 3494,
      "薄": 3495,
      "薇": 3496,
      "薏": 3497,
      "薑": 3498,
      "薔": 3499,
      "薛": 3500,
      "薢": 3501,
      "薤": 3502,
      "薷": 3503,
      "藍": 3504,
      "藏": 3505,
      "藤": 3506,
      "藥": 3507,
      "藩": 3508,
      "藻": 3509,
      "藿": 3510,
      "蘇": 3511,
      "蘊": 3512,
      "蘭": 3513,
      "虎": 3514,
      "處": 3515,
      "虛": 3516,
      "虫": 3517,
      "虹": 3518,
      "蚧": 3519,
      "蛇": 3520,
      "蛙": 3521,
      "蛤": 3522,
      "蛭": 3523,
      "蛸": 3524,
      "蜀": 3525,
      "蜕": 3526,
      "蝉": 3527,
      "蝶": 3528,
      "融": 3529,
      "螞": 3530,
      "螵": 3531,
      "蟻": 3532,
      "蠅": 3533,
      "蠣": 3534,
      "血": 3535,
      "衆": 3536,
      "行": 3537,
      "術": 3538,
      "街": 3539,
      "衛": 3540,
      "衝": 3541,
      "衣": 3542,
      "补": 3543,
      "衫": 3544,
      "衰": 3545,
      "袁": 3546,
      "裏": 3547,
      "裕": 3548,
      "補": 3549,
      "裴": 3550,
      "裸": 3551,
      "製": 3552,
      "襲": 3553,
      "西": 3554,
      "要": 3555,
      "覆": 3556,
      "見": 3557,
      "視": 3558,
      "覚": 3559,
      "親": 3560,
      "観": 3561,
      "覺": 3562,
      "觀": 3563,
      "观": 3564,
      "视": 3565,
      "角": 3566,
      "解": 3567,
      "言": 3568,
      "記": 3569,
      "訣": 3570,
      "設": 3571,
      "訶": 3572,
      "証": 3573,
      "評": 3574,
      "話": 3575,
      "詳": 3576,
      "誌": 3577,
      "語": 3578,
      "誠": 3579,
      "說": 3580,
      "説": 3581,
      "読": 3582,
      "誰": 3583,
      "調": 3584,
      "談": 3585,
      "論": 3586,
      "諸": 3587,
      "謎": 3588,
      "謝": 3589,
      "識": 3590,
      "譜": 3591,
      "警": 3592,
      "議": 3593,
      "護": 3594,
      "變": 3595,
      "讓": 3596,
      "让": 3597,
      "训": 3598,
      "讯": 3599,
      "记": 3600,
      "讲": 3601,
      "诏": 3602,
      "诗": 3603,
      "诚": 3604,
      "话": 3605,
      "该": 3606,
      "语": 3607,
      "请": 3608,
      "谎": 3609,
      "谐": 3610,
      "谷": 3611,
      "豆": 3612,
      "豉": 3613,
      "豊": 3614,
      "豐": 3615,
      "豚": 3616,
      "象": 3617,
      "豫": 3618,
      "豬": 3619,
      "貝": 3620,
      "貞": 3621,
      "財": 3622,
      "貴": 3623,
      "貶": 3624,
      "貼": 3625,
      "資": 3626,
      "賓": 3627,
      "賔": 3628,
      "賞": 3629,
      "賢": 3630,
      "賦": 3631,
      "質": 3632,
      "賽": 3633,
      "贊": 3634,
      "贝": 3635,
      "贞": 3636,
      "财": 3637,
      "败": 3638,
      "贫": 3639,
      "贯": 3640,
      "贵": 3641,
      "贼": 3642,
      "资": 3643,
      "赞": 3644,
      "赤": 3645,
      "赫": 3646,
      "赭": 3647,
      "走": 3648,
      "赵": 3649,
      "起": 3650,
      "超": 3651,
      "越": 3652,
      "趙": 3653,
      "趣": 3654,
      "足": 3655,
      "跌": 3656,
      "路": 3657,
      "蹴": 3658,
      "身": 3659,
      "車": 3660,
      "軍": 3661,
      "軒": 3662,
      "転": 3663,
      "軫": 3664,
      "軸": 3665,
      "軾": 3666,
      "輔": 3667,
      "輝": 3668,
      "輪": 3669,
      "輯": 3670,
      "轄": 3671,
      "轉": 3672,
      "车": 3673,
      "轮": 3674,
      "载": 3675,
      "辈": 3676,
      "辛": 3677,
      "辞": 3678,
      "辣": 3679,
      "辦": 3680,
      "辰": 3681,
      "農": 3682,
      "辺": 3683,
      "込": 3684,
      "辽": 3685,
      "迅": 3686,
      "迈": 3687,
      "运": 3688,
      "近": 3689,
      "返": 3690,
      "进": 3691,
      "远": 3692,
      "连": 3693,
      "迦": 3694,
      "迪": 3695,
      "迫": 3696,
      "述": 3697,
      "迴": 3698,
      "追": 3699,
      "送": 3700,
      "逃": 3701,
      "逆": 3702,
      "逊": 3703,
      "途": 3704,
      "通": 3705,
      "速": 3706,
      "連": 3707,
      "逥": 3708,
      "週": 3709,
      "進": 3710,
      "逸": 3711,
      "遂": 3712,
      "遇": 3713,
      "遊": 3714,
      "運": 3715,
      "遍": 3716,
      "過": 3717,
      "道": 3718,
      "達": 3719,
      "違": 3720,
      "遠": 3721,
      "選": 3722,
      "邉": 3723,
      "邊": 3724,
      "邑": 3725,
      "邡": 3726,
      "那": 3727,
      "邯": 3728,
      "邵": 3729,
      "邸": 3730,
      "郁": 3731,
      "郎": 3732,
      "郑": 3733,
      "郡": 3734,
      "部": 3735,
      "郭": 3736,
      "郷": 3737,
      "都": 3738,
      "鄉": 3739,
      "鄒": 3740,
      "鄧": 3741,
      "鄭": 3742,
      "鄰": 3743,
      "配": 3744,
      "酒": 3745,
      "酱": 3746,
      "酸": 3747,
      "醂": 3748,
      "醉": 3749,
      "醋": 3750,
      "醤": 3751,
      "醫": 3752,
      "醲": 3753,
      "釋": 3754,
      "里": 3755,
      "重": 3756,
      "野": 3757,
      "量": 3758,
      "金": 3759,
      "釜": 3760,
      "鈴": 3761,
      "鈸": 3762,
      "鉄": 3763,
      "鉢": 3764,
      "銀": 3765,
      "銃": 3766,
      "銘": 3767,
      "鋏": 3768,
      "鋼": 3769,
      "錄": 3770,
      "錢": 3771,
      "錦": 3772,
      "録": 3773,
      "鍋": 3774,
      "鎌": 3775,
      "鎖": 3776,
      "鎞": 3777,
      "鎭": 3778,
      "鎮": 3779,
      "鏊": 3780,
      "鏟": 3781,
      "鏡": 3782,
      "鐵": 3783,
      "鑑": 3784,
      "鑛": 3785,
      "鑴": 3786,
      "针": 3787,
      "钏": 3788,
      "钞": 3789,
      "钱": 3790,
      "铁": 3791,
      "铃": 3792,
      "银": 3793,
      "键": 3794,
      "镜": 3795,
      "長": 3796,
      "镸": 3797,
      "长": 3798,
      "門": 3799,
      "閆": 3800,
      "開": 3801,
      "閑": 3802,
      "間": 3803,
      "関": 3804,
      "閣": 3805,
      "閻": 3806,
      "闘": 3807,
      "關": 3808,
      "门": 3809,
      "闫": 3810,
      "闭": 3811,
      "问": 3812,
      "间": 3813,
      "闻": 3814,
      "阁": 3815,
      "队": 3816,
      "阪": 3817,
      "防": 3818,
      "阴": 3819,
      "阿": 3820,
      "陀": 3821,
      "附": 3822,
      "际": 3823,
      "陆": 3824,
      "陈": 3825,
      "降": 3826,
      "限": 3827,
      "院": 3828,
      "陣": 3829,
      "险": 3830,
      "陳": 3831,
      "陵": 3832,
      "陶": 3833,
      "陸": 3834,
      "陽": 3835,
      "隆": 3836,
      "隐": 3837,
      "險": 3838,
      "隷": 3839,
      "难": 3840,
      "雀": 3841,
      "雁": 3842,
      "雄": 3843,
      "雅": 3844,
      "集": 3845,
      "雒": 3846,
      "雖": 3847,
      "雙": 3848,
      "雞": 3849,
      "雨": 3850,
      "雪": 3851,
      "雲": 3852,
      "零": 3853,
      "雷": 3854,
      "電": 3855,
      "霄": 3856,
      "霆": 3857,
      "震": 3858,
      "霊": 3859,
      "霍": 3860,
      "霖": 3861,
      "霜": 3862,
      "霞": 3863,
      "霧": 3864,
      "霸": 3865,
      "靂": 3866,
      "靈": 3867,
      "青": 3868,
      "靖": 3869,
      "静": 3870,
      "靜": 3871,
      "非": 3872,
      "面": 3873,
      "革": 3874,
      "靴": 3875,
      "鞠": 3876,
      "韓": 3877,
      "韜": 3878,
      "韩": 3879,
      "音": 3880,
      "韶": 3881,
      "響": 3882,
      "頂": 3883,
      "順": 3884,
      "須": 3885,
      "頓": 3886,
      "領": 3887,
      "頭": 3888,
      "頷": 3889,
      "頼": 3890,
      "題": 3891,
      "顏": 3892,
      "願": 3893,
      "類": 3894,
      "顧": 3895,
      "顺": 3896,
      "题": 3897,
      "風": 3898,
      "风": 3899,
      "飛": 3900,
      "飞": 3901,
      "食": 3902,
      "飯": 3903,
      "餅": 3904,
      "養": 3905,
      "餐": 3906,
      "館": 3907,
      "饅": 3908,
      "馆": 3909,
      "首": 3910,
      "香": 3911,
      "馨": 3912,
      "馬": 3913,
      "駅": 3914,
      "駿": 3915,
      "騎": 3916,
      "驅": 3917,
      "驚": 3918,
      "马": 3919,
      "骨": 3920,
      "體": 3921,
      "高": 3922,
      "髪": 3923,
      "鬚": 3924,
      "鬱": 3925,
      "鬼": 3926,
      "魁": 3927,
      "魂": 3928,
      "魅": 3929,
      "魏": 3930,
      "魔": 3931,
      "魚": 3932,
      "鮎": 3933,
      "鮑": 3934,
      "鮓": 3935,
      "鮨": 3936,
      "鮮": 3937,
      "鯀": 3938,
      "鯊": 3939,
      "鰯": 3940,
      "鱀": 3941,
      "鱈": 3942,
      "鱉": 3943,
      "鱒": 3944,
      "鱚": 3945,
      "鱼": 3946,
      "鲁": 3947,
      "鲜": 3948,
      "鳥": 3949,
      "鳳": 3950,
      "鳴": 3951,
      "鳶": 3952,
      "鴻": 3953,
      "鵝": 3954,
      "鵬": 3955,
      "鵰": 3956,
      "鷆": 3957,
      "鸡": 3958,
      "鸿": 3959,
      "鹤": 3960,
      "鹰": 3961,
      "鹽": 3962,
      "鹿": 3963,
      "麒": 3964,
      "麓": 3965,
      "麗": 3966,
      "麝": 3967,
      "麟": 3968,
      "麦": 3969,
      "麩": 3970,
      "麴": 3971,
      "麹": 3972,
      "麻": 3973,
      "黃": 3974,
      "黄": 3975,
      "黎": 3976,
      "黑": 3977,
      "黒": 3978,
      "默": 3979,
      "黛": 3980,
      "黨": 3981,
      "鼐": 3982,
      "鼠": 3983,
      "齊": 3984,
      "齋": 3985,
      "齦": 3986,
      "齿": 3987,
      "龍": 3988,
      "龙": 3989,
      "龜": 3990,
      "龟": 3991,
      "Ꙥ": 3992,
      "ꙥ": 3993,
      "ꙩ": 3994,
      "Ꜧ": 3995,
      "ꜧ": 3996,
      "꞉": 3997,
      "ꦑ": 3998,
      "ꦗ": 3999,
      "ꦢ": 4000,
      "ꦮ": 4001,
      "ꦶ": 4002,
      "꧈": 4003,
      "ꯀ": 4004,
      "ꯁ": 4005,
      "ꯂ": 4006,
      "ꯃ": 4007,
      "ꯄ": 4008,
      "ꯅ": 4009,
      "ꯆ": 4010,
      "ꯇ": 4011,
      "ꯈ": 4012,
      "ꯉ": 4013,
      "ꯊ": 4014,
      "ꯍ": 4015,
      "ꯎ": 4016,
      "ꯏ": 4017,
      "ꯑ": 4018,
      "ꯔ": 4019,
      "ꯕ": 4020,
      "ꯖ": 4021,
      "ꯗ": 4022,
      "ꯛ": 4023,
      "ꯜ": 4024,
      "ꯝ": 4025,
      "ꯟ": 4026,
      "ꯡ": 4027,
      "ꯢ": 4028,
      "ꯣ": 4029,
      "ꯤ": 4030,
      "ꯥ": 4031,
      "ꯦ": 4032,
      "ꯧ": 4033,
      "ꯨ": 4034,
      "ꯩ": 4035,
      "": 4036,
      "": 4037,
      "﨑": 4038,
      "️": 4039,
      "︢": 4040,
      "﻿": 4041,
      "￼": 4042,
      "�": 4043,
      "𐎹": 4044,
      "𐤁": 4045,
      "𐤂": 4046,
      "𐤋": 4047,
      "𐬀": 4048,
      "𐬌": 4049,
      "𐬨": 4050,
      "𐬫": 4051,
      "𑐣": 4052,
      "𑐰": 4053,
      "𑐵": 4054,
      "𑐾": 4055,
      "𑑅": 4056,
      "𒀸": 4057,
      "𒁺": 4058,
      "𒋗": 4059,
      "𓏞": 4060,
      "𓏟": 4061,
      "𝄫": 4062,
      "💗": 4063,
      "💩": 4064,
      "😃": 4065,
      "😆": 4066,
      "😞": 4067,
      "😷": 4068,
      "🜸": 4069,
      "🤓": 4070,
      "th": 4071,
      "in": 4072,
      "er": 4073,
      "an": 4074,
      "the": 4075,
      "ou": 4076,
      "on": 4077,
      "at": 4078,
      "re": 4079,
      "is": 4080,
      "en": 4081,
      "to": 4082,
      "ed": 4083,
      "or": 4084,
      "ing": 4085,
      "al": 4086,
      "as": 4087,
      "it": 4088,
      "es": 4089,
      "and": 4090,
      "ar": 4091,
      "of": 4092,
      "he": 4093,
      "you": 4094,
      "me": 4095,
      "le": 4096,
      "st": 4097,
      "ll": 4098,
      "ow": 4099,
      "se": 4100,
      "ic": 4101,
      "ve": 4102,
      "be": 4103,
      "wh": 4104,
      "ha": 4105,
      "ay": 4106,
      "ro": 4107,
      "that": 4108,
      "ere": 4109,
      "ac": 4110,
      "ly": 4111,
      "ion": 4112,
      "id": 4113,
      "ot": 4114,
      "gh": 4115,
      "ent": 4116,
      "ld": 4117,
      "for": 4118,
      "was": 4119,
      "ch": 4120,
      "ver": 4121,
      "ut": 4122,
      "wi": 4123,
      "ad": 4124,
      "li": 4125,
      "so": 4126,
      "ri": 4127,
      "et": 4128,
      "co": 4129,
      "..": 4130,
      "we": 4131,
      "ir": 4132,
      "ke": 4133,
      "nd": 4134,
      "are": 4135,
      "ght": 4136,
      "am": 4137,
      "oo": 4138,
      "all": 4139,
      "The": 4140,
      "do": 4141,
      "im": 4142,
      "ter": 4143,
      "us": 4144,
      "ab": 4145,
      "ne": 4146,
      "with": 4147,
      "out": 4148,
      "one": 4149,
      "ur": 4150,
      "ce": 4151,
      "now": 4152,
      "ag": 4153,
      "Th": 4154,
      "mo": 4155,
      "un": 4156,
      "ther": 4157,
      "pe": 4158,
      "de": 4159,
      "have": 4160,
      "this": 4161,
      "go": 4162,
      "Wh": 4163,
      "not": 4164,
      "lo": 4165,
      "ould": 4166,
      "sh": 4167,
      "up": 4168,
      "ant": 4169,
      "ust": 4170,
      "il": 4171,
      "You": 4172,
      "ation": 4173,
      "te": 4174,
      "ain": 4175,
      "tr": 4176,
      "if": 4177,
      "He": 4178,
      "It": 4179,
      "my": 4180,
      "po": 4181,
      "his": 4182,
      "know": 4183,
      "con": 4184,
      "ct": 4185,
      "pl": 4186,
      "man": 4187,
      "what": 4188,
      "rom": 4189,
      "ul": 4190,
      "can": 4191,
      "fe": 4192,
      "thing": 4193,
      "...": 4194,
      "our": 4195,
      "ap": 4196,
      "est": 4197,
      "by": 4198,
      "her": 4199,
      "no": 4200,
      "art": 4201,
      "they": 4202,
      "your": 4203,
      "res": 4204,
      "sa": 4205,
      "ill": 4206,
      "com": 4207,
      "op": 4208,
      "from": 4209,
      "um": 4210,
      "ers": 4211,
      "but": 4212,
      "ess": 4213,
      "We": 4214,
      "there": 4215,
      "wor": 4216,
      "some": 4217,
      "had": 4218,
      "ti": 4219,
      "ate": 4220,
      "ca": 4221,
      "pro": 4222,
      "19": 4223,
      "ally": 4224,
      "ard": 4225,
      "qu": 4226,
      "ex": 4227,
      "like": 4228,
      "get": 4229,
      "su": 4230,
      "him": 4231,
      "ack": 4232,
      "bo": 4233,
      "ind": 4234,
      "ig": 4235,
      "way": 4236,
      "she": 4237,
      "And": 4238,
      "ah": 4239,
      "very": 4240,
      "don": 4241,
      "ist": 4242,
      "ge": 4243,
      "end": 4244,
      "20": 4245,
      "king": 4246,
      "ry": 4247,
      "ight": 4248,
      "ood": 4249,
      "ake": 4250,
      "ie": 4251,
      "ong": 4252,
      "about": 4253,
      "ive": 4254,
      "ment": 4255,
      "ound": 4256,
      "were": 4257,
      "just": 4258,
      "ye": 4259,
      "own": 4260,
      "ber": 4261,
      "who": 4262,
      "ast": 4263,
      "use": 4264,
      "ity": 4265,
      "ich": 4266,
      "ink": 4267,
      "ck": 4268,
      "here": 4269,
      "What": 4270,
      "right": 4271,
      "see": 4272,
      "any": 4273,
      "el": 4274,
      "ook": 4275,
      "fo": 4276,
      "So": 4277,
      "did": 4278,
      "ho": 4279,
      "na": 4280,
      "gr": 4281,
      "wo": 4282,
      "No": 4283,
      "ine": 4284,
      "In": 4285,
      "them": 4286,
      "ish": 4287,
      "want": 4288,
      "ra": 4289,
      "would": 4290,
      "ven": 4291,
      "per": 4292,
      "ide": 4293,
      "other": 4294,
      "will": 4295,
      "ort": 4296,
      "got": 4297,
      "ep": 4298,
      "ous": 4299,
      "has": 4300,
      "ice": 4301,
      "act": 4302,
      "ci": 4303,
      "om": 4304,
      "red": 4305,
      "think": 4306,
      "ough": 4307,
      "ak": 4308,
      "bl": 4309,
      "which": 4310,
      "day": 4311,
      "when": 4312,
      "itt": 4313,
      "time": 4314,
      "di": 4315,
      "say": 4316,
      "oun": 4317,
      "ol": 4318,
      "cl": 4319,
      "ace": 4320,
      "age": 4321,
      "af": 4322,
      "But": 4323,
      "been": 4324,
      "said": 4325,
      "ty": 4326,
      "sp": 4327,
      "--": 4328,
      "br": 4329,
      "more": 4330,
      "over": 4331,
      "ass": 4332,
      "ure": 4333,
      "Oh": 4334,
      "Ye": 4335,
      "come": 4336,
      "ree": 4337,
      "und": 4338,
      "off": 4339,
      "then": 4340,
      "ick": 4341,
      "ite": 4342,
      "That": 4343,
      "ans": 4344,
      "ople": 4345,
      "ies": 4346,
      "ang": 4347,
      "ple": 4348,
      "their": 4349,
      "going": 4350,
      "too": 4351,
      "back": 4352,
      "ary": 4353,
      "ach": 4354,
      "pp": 4355,
      "could": 4356,
      "Yeah": 4357,
      "ia": 4358,
      "where": 4359,
      "cause": 4360,
      "how": 4361,
      "ars": 4362,
      "mer": 4363,
      "irst": 4364,
      "ated": 4365,
      "part": 4366,
      "let": 4367,
      "Ch": 4368,
      "people": 4369,
      "tor": 4370,
      "ble": 4371,
      "dy": 4372,
      "sel": 4373,
      "two": 4374,
      "ank": 4375,
      "ue": 4376,
      "good": 4377,
      "She": 4378,
      "ved": 4379,
      "St": 4380,
      "look": 4381,
      "ord": 4382,
      "pr": 4383,
      "ade": 4384,
      "av": 4385,
      "ase": 4386,
      "au": 4387,
      "work": 4388,
      "They": 4389,
      "This": 4390,
      "down": 4391,
      "first": 4392,
      "into": 4393,
      "si": 4394,
      "em": 4395,
      "ittle": 4396,
      "well": 4397,
      "kay": 4398,
      "fore": 4399,
      "00": 4400,
      "ance": 4401,
      "able": 4402,
      "reat": 4403,
      "dis": 4404,
      "Well": 4405,
      "ave": 4406,
      "play": 4407,
      "call": 4408,
      "ence": 4409,
      "ip": 4410,
      "its": 4411,
      "new": 4412,
      "gu": 4413,
      "only": 4414,
      "ud": 4415,
      "orn": 4416,
      "mber": 4417,
      "int": 4418,
      "little": 4419,
      "put": 4420,
      "oh": 4421,
      "pos": 4422,
      "also": 4423,
      "ought": 4424,
      "ret": 4425,
      "ser": 4426,
      "min": 4427,
      "ater": 4428,
      "every": 4429,
      "ions": 4430,
      "fer": 4431,
      "again": 4432,
      "ren": 4433,
      "land": 4434,
      "mu": 4435,
      "tal": 4436,
      "self": 4437,
      "bet": 4438,
      "pres": 4439,
      "urn": 4440,
      "ian": 4441,
      "str": 4442,
      "ever": 4443,
      "sto": 4444,
      "ild": 4445,
      "need": 4446,
      "than": 4447,
      "read": 4448,
      "ving": 4449,
      "spe": 4450,
      "tell": 4451,
      "because": 4452,
      "aw": 4453,
      "after": 4454,
      "201": 4455,
      "make": 4456,
      "take": 4457,
      "bu": 4458,
      "port": 4459,
      ".\"": 4460,
      "ob": 4461,
      "fa": 4462,
      "ves": 4463,
      "Yes": 4464,
      "There": 4465,
      "hi": 4466,
      "pt": 4467,
      "od": 4468,
      "mon": 4469,
      "sc": 4470,
      "ose": 4471,
      "ma": 4472,
      "old": 4473,
      "long": 4474,
      "mar": 4475,
      "came": 4476,
      "Un": 4477,
      "most": 4478,
      "should": 4479,
      "thr": 4480,
      "happ": 4481,
      "really": 4482,
      "try": 4483,
      "ical": 4484,
      "form": 4485,
      "under": 4486,
      "ile": 4487,
      "How": 4488,
      "does": 4489,
      "Co": 4490,
      "ign": 4491,
      "gon": 4492,
      "these": 4493,
      "ph": 4494,
      "fl": 4495,
      "much": 4496,
      "iss": 4497,
      "An": 4498,
      "iz": 4499,
      "ens": 4500,
      "something": 4501,
      "ting": 4502,
      "tain": 4503,
      "men": 4504,
      "made": 4505,
      "uh": 4506,
      "used": 4507,
      "wr": 4508,
      "du": 4509,
      "Be": 4510,
      "mean": 4511,
      "coun": 4512,
      "inter": 4513,
      "ction": 4514,
      "gonna": 4515,
      "hel": 4516,
      "ath": 4517,
      "If": 4518,
      "won": 4519,
      "Do": 4520,
      "ts": 4521,
      "even": 4522,
      "many": 4523,
      "ps": 4524,
      "may": 4525,
      "ire": 4526,
      "car": 4527,
      "never": 4528,
      "ng": 4529,
      "went": 4530,
      "cr": 4531,
      "body": 4532,
      "before": 4533,
      "200": 4534,
      "fu": 4535,
      "ool": 4536,
      "cent": 4537,
      "Mr": 4538,
      "ask": 4539,
      "ta": 4540,
      "hand": 4541,
      "ates": 4542,
      "yes": 4543,
      "ys": 4544,
      "Mar": 4545,
      "ft": 4546,
      "didn": 4547,
      "ouse": 4548,
      "side": 4549,
      "les": 4550,
      "fin": 4551,
      "ms": 4552,
      "med": 4553,
      "years": 4554,
      "des": 4555,
      "Ro": 4556,
      "amp": 4557,
      "att": 4558,
      "lie": 4559,
      "pre": 4560,
      "ict": 4561,
      "ily": 4562,
      "ise": 4563,
      "head": 4564,
      "through": 4565,
      "Ne": 4566,
      "atch": 4567,
      "ition": 4568,
      "ful": 4569,
      "ited": 4570,
      "stand": 4571,
      "dif": 4572,
      "cont": 4573,
      "ried": 4574,
      "Re": 4575,
      "ious": 4576,
      "der": 4577,
      "three": 4578,
      "ually": 4579,
      "Al": 4580,
      "18": 4581,
      "life": 4582,
      "ss": 4583,
      "great": 4584,
      "sup": 4585,
      "De": 4586,
      "vers": 4587,
      "comp": 4588,
      "ations": 4589,
      "start": 4590,
      "okay": 4591,
      "Is": 4592,
      "All": 4593,
      "TH": 4594,
      "found": 4595,
      "those": 4596,
      "vis": 4597,
      "son": 4598,
      "away": 4599,
      "thought": 4600,
      "things": 4601,
      "ces": 4602,
      "cle": 4603,
      "cour": 4604,
      "give": 4605,
      "cer": 4606,
      "clo": 4607,
      "still": 4608,
      "ince": 4609,
      "IN": 4610,
      "ward": 4611,
      "tim": 4612,
      "night": 4613,
      "love": 4614,
      "gen": 4615,
      "ways": 4616,
      "Br": 4617,
      "last": 4618,
      "Why": 4619,
      "find": 4620,
      "Don": 4621,
      "dr": 4622,
      "home": 4623,
      "llow": 4624,
      "Now": 4625,
      "ten": 4626,
      "must": 4627,
      "cess": 4628,
      "''": 4629,
      "yeah": 4630,
      "Le": 4631,
      "``": 4632,
      "bit": 4633,
      "fri": 4634,
      "help": 4635,
      "col": 4636,
      "doing": 4637,
      "show": 4638,
      "Ar": 4639,
      "als": 4640,
      "being": 4641,
      "ton": 4642,
      "sy": 4643,
      "cond": 4644,
      "care": 4645,
      "name": 4646,
      "fr": 4647,
      "irl": 4648,
      "place": 4649,
      "cre": 4650,
      "less": 4651,
      "sm": 4652,
      "ship": 4653,
      "che": 4654,
      "called": 4655,
      "ug": 4656,
      "ange": 4657,
      "bro": 4658,
      "light": 4659,
      "ult": 4660,
      "ear": 4661,
      "unt": 4662,
      "ings": 4663,
      "Amer": 4664,
      "lot": 4665,
      "ican": 4666,
      "gi": 4667,
      "friend": 4668,
      "sure": 4669,
      "why": 4670,
      "air": 4671,
      "ational": 4672,
      "oney": 4673,
      "Se": 4674,
      "set": 4675,
      "fam": 4676,
      "On": 4677,
      "ident": 4678,
      "ff": 4679,
      "pol": 4680,
      "pri": 4681,
      "ced": 4682,
      "\".": 4683,
      "ened": 4684,
      "child": 4685,
      "ub": 4686,
      "uck": 4687,
      "ait": 4688,
      "Let": 4689,
      "gan": 4690,
      "As": 4691,
      "chool": 4692,
      "such": 4693,
      "kind": 4694,
      "big": 4695,
      "ele": 4696,
      "kill": 4697,
      "reg": 4698,
      "bab": 4699,
      "same": 4700,
      "sing": 4701,
      "pers": 4702,
      "member": 4703,
      "My": 4704,
      "pu": 4705,
      "ning": 4706,
      "When": 4707,
      "vie": 4708,
      "feel": 4709,
      "comm": 4710,
      "sur": 4711,
      "Come": 4712,
      "point": 4713,
      "house": 4714,
      "world": 4715,
      "je": 4716,
      "cted": 4717,
      "ason": 4718,
      "jo": 4719,
      "ial": 4720,
      "Fr": 4721,
      "times": 4722,
      "nor": 4723,
      "la": 4724,
      "ark": 4725,
      "born": 4726,
      "differ": 4727,
      "For": 4728,
      "ev": 4729,
      "mp": 4730,
      "num": 4731,
      "ress": 4732,
      "cur": 4733,
      "ER": 4734,
      "talk": 4735,
      "Okay": 4736,
      "ased": 4737,
      "ner": 4738,
      "atter": 4739,
      "girl": 4740,
      "around": 4741,
      "led": 4742,
      "ash": 4743,
      "year": 4744,
      "bre": 4745,
      "199": 4746,
      "xt": 4747,
      "ower": 4748,
      "might": 4749,
      "Ju": 4750,
      "turn": 4751,
      "ek": 4752,
      "ese": 4753,
      "ith": 4754,
      "AN": 4755,
      "word": 4756,
      "Hey": 4757,
      "run": 4758,
      "ating": 4759,
      "another": 4760,
      "known": 4761,
      "To": 4762,
      ").": 4763,
      "log": 4764,
      "io": 4765,
      "four": 4766,
      "cy": 4767,
      "uring": 4768,
      "ame": 4769,
      "\",": 4770,
      "ready": 4771,
      "Thank": 4772,
      "ents": 4773,
      "May": 4774,
      "ctor": 4775,
      "ins": 4776,
      "val": 4777,
      "always": 4778,
      "outh": 4779,
      "ball": 4780,
      "cons": 4781,
      "ween": 4782,
      "Can": 4783,
      "orry": 4784,
      "ered": 4785,
      "real": 4786,
      "high": 4787,
      "vi": 4788,
      "cord": 4789,
      "main": 4790,
      "ics": 4791,
      "Mo": 4792,
      "stu": 4793,
      "anything": 4794,
      "room": 4795,
      "New": 4796,
      "left": 4797,
      "cha": 4798,
      "better": 4799,
      "done": 4800,
      "erm": 4801,
      "God": 4802,
      "keep": 4803,
      "while": 4804,
      "),": 4805,
      "Sh": 4806,
      "gl": 4807,
      "person": 4808,
      "ute": 4809,
      "bus": 4810,
      "war": 4811,
      "belie": 4812,
      "ness": 4813,
      "At": 4814,
      "between": 4815,
      "though": 4816,
      ",\"": 4817,
      "ular": 4818,
      "incl": 4819,
      "Then": 4820,
      "rest": 4821,
      "second": 4822,
      "cial": 4823,
      "told": 4824,
      "mus": 4825,
      "ors": 4826,
      "school": 4827,
      "||": 4828,
      "book": 4829,
      "Just": 4830,
      "lar": 4831,
      "ual": 4832,
      "His": 4833,
      "row": 4834,
      "ared": 4835,
      "tri": 4836,
      "ished": 4837,
      "char": 4838,
      "par": 4839,
      "father": 4840,
      "money": 4841,
      "ister": 4842,
      "ird": 4843,
      "OU": 4844,
      "loo": 4845,
      "eng": 4846,
      "different": 4847,
      "full": 4848,
      "sub": 4849,
      "ste": 4850,
      "tow": 4851,
      "top": 4852,
      "water": 4853,
      "mb": 4854,
      "far": 4855,
      "ris": 4856,
      "Who": 4857,
      "ale": 4858,
      "inv": 4859,
      "10": 4860,
      "course": 4861,
      "mother": 4862,
      "American": 4863,
      "aster": 4864,
      "Where": 4865,
      "az": 4866,
      "cap": 4867,
      "died": 4868,
      "list": 4869,
      "United": 4870,
      "Con": 4871,
      "Com": 4872,
      "ny": 4873,
      "took": 4874,
      "until": 4875,
      "coming": 4876,
      "ail": 4877,
      "add": 4878,
      "Not": 4879,
      "os": 4880,
      "Some": 4881,
      "oc": 4882,
      "198": 4883,
      "tory": 4884,
      "bed": 4885,
      "fun": 4886,
      "plan": 4887,
      "both": 4888,
      "each": 4889,
      "ef": 4890,
      "gg": 4891,
      "produ": 4892,
      "pass": 4893,
      "nothing": 4894,
      "next": 4895,
      "Go": 4896,
      "Are": 4897,
      "ative": 4898,
      "mind": 4899,
      "sha": 4900,
      "saw": 4901,
      "number": 4902,
      "hard": 4903,
      "best": 4904,
      "face": 4905,
      "later": 4906,
      "follow": 4907,
      "nam": 4908,
      "ted": 4909,
      "rel": 4910,
      "gether": 4911,
      "fect": 4912,
      "eral": 4913,
      "mor": 4914,
      "sk": 4915,
      "sl": 4916,
      "ped": 4917,
      "akes": 4918,
      "cri": 4919,
      "Joh": 4920,
      "ities": 4921,
      "city": 4922,
      "uary": 4923,
      "quest": 4924,
      "appe": 4925,
      "family": 4926,
      "ON": 4927,
      "doesn": 4928,
      "week": 4929,
      "team": 4930,
      "aren": 4931,
      "miss": 4932,
      "hal": 4933,
      "dec": 4934,
      "ross": 4935,
      "cept": 4936,
      "sol": 4937,
      "wait": 4938,
      "together": 4939,
      "Eng": 4940,
      "lt": 4941,
      "Good": 4942,
      "five": 4943,
      "Nor": 4944,
      "ures": 4945,
      "band": 4946,
      "197": 4947,
      "Coun": 4948,
      "ject": 4949,
      "boy": 4950,
      "actually": 4951,
      "enough": 4952,
      "Ind": 4953,
      "state": 4954,
      "town": 4955,
      "cal": 4956,
      "John": 4957,
      "leg": 4958,
      "seen": 4959,
      "against": 4960,
      "Bo": 4961,
      "Gr": 4962,
      "hu": 4963,
      "ING": 4964,
      "else": 4965,
      "Right": 4966,
      "small": 4967,
      "Look": 4968,
      "iness": 4969,
      "One": 4970,
      "ger": 4971,
      "ments": 4972,
      "young": 4973,
      "without": 4974,
      "publ": 4975,
      "pret": 4976,
      "live": 4977,
      "dire": 4978,
      "den": 4979,
      "present": 4980,
      "line": 4981,
      "ush": 4982,
      "aught": 4983,
      "proble": 4984,
      "bad": 4985,
      "wal": 4986,
      "hold": 4987,
      "hear": 4988,
      "six": 4989,
      "pop": 4990,
      "ivers": 4991,
      "cut": 4992,
      "ons": 4993,
      "sorry": 4994,
      "Af": 4995,
      "wanted": 4996,
      "few": 4997,
      "looking": 4998,
      "once": 4999,
      "States": 5000,
      "sho": 5001,
      "became": 5002,
      "15": 5003,
      "everything": 5004,
      "understand": 5005,
      "sim": 5006,
      "ung": 5007,
      "press": 5008,
      "fi": 5009,
      "sign": 5010,
      "move": 5011,
      "17": 5012,
      "Er": 5013,
      "sit": 5014,
      "heart": 5015,
      "ned": 5016,
      "national": 5017,
      "AT": 5018,
      "ze": 5019,
      "iv": 5020,
      "remember": 5021,
      "serv": 5022,
      "mm": 5023,
      "gre": 5024,
      "leave": 5025,
      "dri": 5026,
      "ago": 5027,
      "aut": 5028,
      "stay": 5029,
      "open": 5030,
      "ific": 5031,
      "Uh": 5032,
      "round": 5033,
      "near": 5034,
      "stem": 5035,
      "ling": 5036,
      "arch": 5037,
      "since": 5038,
      "cover": 5039,
      "RE": 5040,
      "children": 5041,
      "says": 5042,
      "mark": 5043,
      "meet": 5044,
      "igh": 5045,
      "ters": 5046,
      "Or": 5047,
      "huh": 5048,
      "days": 5049,
      "gin": 5050,
      "ls": 5051,
      "pect": 5052,
      "Car": 5053,
      "ley": 5054,
      "lead": 5055,
      "believe": 5056,
      "foot": 5057,
      "please": 5058,
      "quite": 5059,
      "music": 5060,
      "during": 5061,
      "vo": 5062,
      "import": 5063,
      "ield": 5064,
      "Did": 5065,
      "fact": 5066,
      "llo": 5067,
      "THE": 5068,
      "cus": 5069,
      "law": 5070,
      "Your": 5071,
      "Li": 5072,
      "today": 5073,
      "getting": 5074,
      "half": 5075,
      "kid": 5076,
      "Ma": 5077,
      "wan": 5078,
      "196": 5079,
      "ants": 5080,
      "Me": 5081,
      "tre": 5082,
      "Ger": 5083,
      "ones": 5084,
      "ina": 5085,
      "orning": 5086,
      "ream": 5087,
      "ica": 5088,
      "isn": 5089,
      "hour": 5090,
      "includ": 5091,
      "woman": 5092,
      "Pr": 5093,
      "oup": 5094,
      "Jan": 5095,
      "eyes": 5096,
      "happened": 5097,
      "nice": 5098,
      "ather": 5099,
      "build": 5100,
      "ier": 5101,
      "ury": 5102,
      "ond": 5103,
      "possi": 5104,
      "ont": 5105,
      "watch": 5106,
      "ital": 5107,
      "interest": 5108,
      "000": 5109,
      "ork": 5110,
      "12": 5111,
      "Ex": 5112,
      "whole": 5113,
      "sort": 5114,
      "16": 5115,
      "vision": 5116,
      "played": 5117,
      "heard": 5118,
      "power": 5119,
      "door": 5120,
      "rele": 5121,
      "After": 5122,
      "matter": 5123,
      "Tr": 5124,
      "bar": 5125,
      "fil": 5126,
      "ator": 5127,
      "itch": 5128,
      "?\"": 5129,
      "mil": 5130,
      "ames": 5131,
      "pain": 5132,
      "hy": 5133,
      "yet": 5134,
      "dist": 5135,
      "raw": 5136,
      "Cl": 5137,
      "comes": 5138,
      "himself": 5139,
      "Get": 5140,
      "ral": 5141,
      "eat": 5142,
      "job": 5143,
      "app": 5144,
      "case": 5145,
      "view": 5146,
      "morning": 5147,
      "ists": 5148,
      "having": 5149,
      "Ho": 5150,
      "Will": 5151,
      "sle": 5152,
      "system": 5153,
      "lad": 5154,
      "pay": 5155,
      "velo": 5156,
      "II": 5157,
      "eter": 5158,
      "song": 5159,
      "order": 5160,
      "win": 5161,
      "Te": 5162,
      "started": 5163,
      "asked": 5164,
      "Man": 5165,
      "Here": 5166,
      "ither": 5167,
      "ages": 5168,
      "ense": 5169,
      "Pro": 5170,
      "knew": 5171,
      "thank": 5172,
      "ines": 5173,
      "record": 5174,
      "peri": 5175,
      "change": 5176,
      "ude": 5177,
      "cor": 5178,
      "Mm": 5179,
      "upon": 5180,
      "ised": 5181,
      "talking": 5182,
      "stop": 5183,
      "vent": 5184,
      "Col": 5185,
      "gover": 5186,
      "soon": 5187,
      "sir": 5188,
      "death": 5189,
      "qui": 5190,
      "que": 5191,
      "important": 5192,
      "eas": 5193,
      "ok": 5194,
      "already": 5195,
      "along": 5196,
      "shall": 5197,
      "ai": 5198,
      "urch": 5199,
      "hur": 5200,
      "month": 5201,
      "Bl": 5202,
      "idea": 5203,
      "fort": 5204,
      "AR": 5205,
      "wrong": 5206,
      "ring": 5207,
      "exam": 5208,
      "return": 5209,
      "country": 5210,
      "swe": 5211,
      "answ": 5212,
      "key": 5213,
      "lear": 5214,
      "King": 5215,
      "Ge": 5216,
      "brother": 5217,
      "30": 5218,
      "polit": 5219,
      "gave": 5220,
      "saying": 5221,
      "Jo": 5222,
      "dead": 5223,
      "comple": 5224,
      "ene": 5225,
      "game": 5226,
      "ety": 5227,
      "tem": 5228,
      "wind": 5229,
      "iversity": 5230,
      "fac": 5231,
      "wife": 5232,
      "prom": 5233,
      "ran": 5234,
      "gy": 5235,
      "sound": 5236,
      "ature": 5237,
      "ided": 5238,
      "trans": 5239,
      "Fe": 5240,
      "Cha": 5241,
      "sent": 5242,
      "gone": 5243,
      "ries": 5244,
      "means": 5245,
      "certain": 5246,
      "road": 5247,
      "trying": 5248,
      "ution": 5249,
      "allow": 5250,
      "posed": 5251,
      "ied": 5252,
      "chang": 5253,
      "Because": 5254,
      "ism": 5255,
      "class": 5256,
      "ann": 5257,
      "met": 5258,
      "contin": 5259,
      "ST": 5260,
      "LL": 5261,
      "fine": 5262,
      "ility": 5263,
      "dam": 5264,
      "reason": 5265,
      "nment": 5266,
      "ically": 5267,
      "bring": 5268,
      "business": 5269,
      "aughter": 5270,
      "grap": 5271,
      "pped": 5272,
      "low": 5273,
      "mill": 5274,
      "bably": 5275,
      "ster": 5276,
      "cho": 5277,
      "ets": 5278,
      "area": 5279,
      "195": 5280,
      "lish": 5281,
      "pretty": 5282,
      "fall": 5283,
      "uc": 5284,
      "bum": 5285,
      "began": 5286,
      "uro": 5287,
      "organ": 5288,
      "wanna": 5289,
      "ati": 5290,
      "story": 5291,
      "Her": 5292,
      "movie": 5293,
      "gt": 5294,
      "inking": 5295,
      "ended": 5296,
      "making": 5297,
      "Wor": 5298,
      "fre": 5299,
      "14": 5300,
      "With": 5301,
      "offic": 5302,
      "baby": 5303,
      "194": 5304,
      "YOU": 5305,
      "field": 5306,
      "vel": 5307,
      "suc": 5308,
      "hor": 5309,
      "ately": 5310,
      "often": 5311,
      "ik": 5312,
      "oper": 5313,
      "Fo": 5314,
      "plac": 5315,
      "lost": 5316,
      "guy": 5317,
      "stru": 5318,
      "fight": 5319,
      "dro": 5320,
      "lay": 5321,
      "train": 5322,
      "Brit": 5323,
      "beaut": 5324,
      "happen": 5325,
      "OR": 5326,
      "human": 5327,
      "whe": 5328,
      "colle": 5329,
      "clear": 5330,
      "plain": 5331,
      ".”": 5332,
      "ural": 5333,
      "vol": 5334,
      "partic": 5335,
      "break": 5336,
      "iter": 5337,
      "fire": 5338,
      "looked": 5339,
      "ized": 5340,
      "ats": 5341,
      "EN": 5342,
      "mi": 5343,
      "goes": 5344,
      "gram": 5345,
      "given": 5346,
      "prov": 5347,
      "wards": 5348,
      "augh": 5349,
      "prof": 5350,
      "tern": 5351,
      "soci": 5352,
      "Ple": 5353,
      "13": 5354,
      "ground": 5355,
      "Miss": 5356,
      "Every": 5357,
      "walk": 5358,
      "Pe": 5359,
      "moment": 5360,
      "Par": 5361,
      "problem": 5362,
      "develo": 5363,
      "dad": 5364,
      "someone": 5365,
      "ional": 5366,
      "close": 5367,
      "lock": 5368,
      "women": 5369,
      "aken": 5370,
      "wasn": 5371,
      "Sp": 5372,
      "van": 5373,
      "fic": 5374,
      "hm": 5375,
      "var": 5376,
      "wonder": 5377,
      "test": 5378,
      "large": 5379,
      "working": 5380,
      "undred": 5381,
      "ery": 5382,
      "yourself": 5383,
      "pie": 5384,
      "Dr": 5385,
      "probably": 5386,
      "dep": 5387,
      "wish": 5388,
      "ides": 5389,
      "maybe": 5390,
      "season": 5391,
      "group": 5392,
      "aged": 5393,
      "hope": 5394,
      "ison": 5395,
      "cu": 5396,
      "War": 5397,
      "short": 5398,
      "guys": 5399,
      "Lo": 5400,
      "York": 5401,
      "Har": 5402,
      "Mrs": 5403,
      "ali": 5404,
      "true": 5405,
      "wood": 5406,
      "late": 5407,
      "white": 5408,
      "pose": 5409,
      "rece": 5410,
      "possible": 5411,
      "sleep": 5412,
      "commun": 5413,
      "hind": 5414,
      "IT": 5415,
      "lly": 5416,
      "Bar": 5417,
      "exp": 5418,
      "happy": 5419,
      "resp": 5420,
      "These": 5421,
      "mid": 5422,
      "hundred": 5423,
      "aper": 5424,
      "ined": 5425,
      "ards": 5426,
      "IS": 5427,
      "ney": 5428,
      "Please": 5429,
      "wouldn": 5430,
      "deal": 5431,
      "arm": 5432,
      "tru": 5433,
      "Po": 5434,
      "mag": 5435,
      "ouch": 5436,
      "County": 5437,
      "become": 5438,
      "qual": 5439,
      "stit": 5440,
      "fair": 5441,
      "21": 5442,
      "Gu": 5443,
      "rew": 5444,
      "apan": 5445,
      "friends": 5446,
      "Je": 5447,
      "bur": 5448,
      "eight": 5449,
      "black": 5450,
      "almost": 5451,
      "free": 5452,
      "public": 5453,
      "ili": 5454,
      "jor": 5455,
      "haven": 5456,
      "ices": 5457,
      "early": 5458,
      "!\"": 5459,
      "hon": 5460,
      "hands": 5461,
      "gent": 5462,
      "Ab": 5463,
      "Ah": 5464,
      "LE": 5465,
      "acti": 5466,
      "22": 5467,
      "contro": 5468,
      "World": 5469,
      "question": 5470,
      "University": 5471,
      "Japan": 5472,
      "least": 5473,
      "unch": 5474,
      "words": 5475,
      "orig": 5476,
      "emp": 5477,
      "using": 5478,
      "ama": 5479,
      "ulation": 5480,
      "reach": 5481,
      "company": 5482,
      "phone": 5483,
      "Of": 5484,
      "pa": 5485,
      "pen": 5486,
      ",”": 5487,
      "ague": 5488,
      "die": 5489,
      "married": 5490,
      "cret": 5491,
      "rent": 5492,
      "myself": 5493,
      "January": 5494,
      "25": 5495,
      "ouble": 5496,
      "CH": 5497,
      "Pres": 5498,
      "killed": 5499,
      "fully": 5500,
      "consid": 5501,
      "alone": 5502,
      "blood": 5503,
      "dog": 5504,
      "ump": 5505,
      "iful": 5506,
      "ru": 5507,
      "US": 5508,
      "South": 5509,
      "anim": 5510,
      "mit": 5511,
      "ham": 5512,
      "gun": 5513,
      "Min": 5514,
      "Aust": 5515,
      "angu": 5516,
      "cas": 5517,
      "conf": 5518,
      "sever": 5519,
      "government": 5520,
      "English": 5521,
      "cell": 5522,
      "11": 5523,
      "fast": 5524,
      "Euro": 5525,
      "Aug": 5526,
      "logy": 5527,
      "Ste": 5528,
      "alth": 5529,
      "draw": 5530,
      "March": 5531,
      "utes": 5532,
      "ows": 5533,
      "vil": 5534,
      "hot": 5535,
      "origin": 5536,
      "guess": 5537,
      "France": 5538,
      "Char": 5539,
      "released": 5540,
      "cli": 5541,
      "raz": 5542,
      "aim": 5543,
      "taken": 5544,
      "ilt": 5545,
      "enn": 5546,
      "tom": 5547,
      "behind": 5548,
      "cking": 5549,
      "tele": 5550,
      "album": 5551,
      "oud": 5552,
      "Hello": 5553,
      "brought": 5554,
      "pick": 5555,
      "Per": 5556,
      "pur": 5557,
      "speak": 5558,
      "cot": 5559,
      "wel": 5560,
      "rench": 5561,
      "ged": 5562,
      "Oc": 5563,
      "appro": 5564,
      "vious": 5565,
      "ony": 5566,
      "selves": 5567,
      "rid": 5568,
      "OK": 5569,
      "strong": 5570,
      "taking": 5571,
      "August": 5572,
      "Sep": 5573,
      "mal": 5574,
      "mom": 5575,
      "position": 5576,
      "makes": 5577,
      "step": 5578,
      "bor": 5579,
      "gn": 5580,
      "front": 5581,
      "series": 5582,
      "several": 5583,
      "food": 5584,
      "anger": 5585,
      "moved": 5586,
      "por": 5587,
      "search": 5588,
      "June": 5589,
      "sat": 5590,
      "Have": 5591,
      "rist": 5592,
      "bot": 5593,
      "TO": 5594,
      "ken": 5595,
      "held": 5596,
      "tember": 5597,
      "daughter": 5598,
      "ane": 5599,
      "iting": 5600,
      "loc": 5601,
      "ances": 5602,
      "By": 5603,
      "laugh": 5604,
      "star": 5605,
      "ME": 5606,
      "bas": 5607,
      "trict": 5608,
      "success": 5609,
      "British": 5610,
      "ino": 5611,
      "ending": 5612,
      "named": 5613,
      "sold": 5614,
      "listen": 5615,
      "haps": 5616,
      "rock": 5617,
      "lling": 5618,
      "either": 5619,
      "stuff": 5620,
      "charac": 5621,
      "ford": 5622,
      "fig": 5623,
      "ory": 5624,
      "ues": 5625,
      "former": 5626,
      "stead": 5627,
      "thor": 5628,
      "ured": 5629,
      "pict": 5630,
      "tra": 5631,
      "squ": 5632,
      "looks": 5633,
      "support": 5634,
      "Maybe": 5635,
      "remain": 5636,
      "rather": 5637,
      "ext": 5638,
      "attack": 5639,
      "gener": 5640,
      "September": 5641,
      "design": 5642,
      "tober": 5643,
      "Europe": 5644,
      "grow": 5645,
      "party": 5646,
      "lled": 5647,
      "ply": 5648,
      "North": 5649,
      "minute": 5650,
      "thinking": 5651,
      "arr": 5652,
      "kes": 5653,
      "quick": 5654,
      "million": 5655,
      "October": 5656,
      "atic": 5657,
      "sed": 5658,
      "ize": 5659,
      "others": 5660,
      "sum": 5661,
      "aking": 5662,
      "Apri": 5663,
      "cast": 5664,
      "April": 5665,
      "box": 5666,
      "inform": 5667,
      "minutes": 5668,
      "living": 5669,
      "seven": 5670,
      "sil": 5671,
      "example": 5672,
      "langu": 5673,
      "July": 5674,
      "AS": 5675,
      "rad": 5676,
      "ering": 5677,
      "within": 5678,
      "couldn": 5679,
      "report": 5680,
      "del": 5681,
      "beautiful": 5682,
      "program": 5683,
      "sw": 5684,
      "National": 5685,
      "Ser": 5686,
      "ler": 5687,
      "spo": 5688,
      "reet": 5689,
      "fle": 5690,
      "begin": 5691,
      "vill": 5692,
      "Any": 5693,
      "193": 5694,
      "prote": 5695,
      "turned": 5696,
      "iver": 5697,
      "24": 5698,
      "north": 5699,
      "cies": 5700,
      "Mon": 5701,
      "cient": 5702,
      "sun": 5703,
      "sister": 5704,
      "including": 5705,
      "tract": 5706,
      "ete": 5707,
      "lived": 5708,
      "Tom": 5709,
      "cou": 5710,
      "leav": 5711,
      "wenty": 5712,
      "gar": 5713,
      "iam": 5714,
      "wants": 5715,
      "inside": 5716,
      "Dece": 5717,
      "ief": 5718,
      "special": 5719,
      "Geor": 5720,
      "Ke": 5721,
      "December": 5722,
      "dear": 5723,
      "Chris": 5724,
      "itting": 5725,
      "thern": 5726,
      "depart": 5727,
      "buy": 5728,
      "sex": 5729,
      "itten": 5730,
      "Nove": 5731,
      "50": 5732,
      "works": 5733,
      "police": 5734,
      "mess": 5735,
      "based": 5736,
      "ches": 5737,
      "third": 5738,
      "actly": 5739,
      "dle": 5740,
      "French": 5741,
      "playing": 5742,
      "ding": 5743,
      "past": 5744,
      "----": 5745,
      "Mic": 5746,
      "single": 5747,
      "film": 5748,
      "Qu": 5749,
      "sometimes": 5750,
      "mun": 5751,
      "November": 5752,
      "dream": 5753,
      "Ac": 5754,
      "board": 5755,
      "ousand": 5756,
      "tle": 5757,
      "Jack": 5758,
      "Hi": 5759,
      "mis": 5760,
      "ctions": 5761,
      "gets": 5762,
      "fish": 5763,
      "ctr": 5764,
      "bert": 5765,
      "hus": 5766,
      "Dan": 5767,
      "poor": 5768,
      "ax": 5769,
      "ots": 5770,
      "ived": 5771,
      "touch": 5772,
      "felt": 5773,
      "voice": 5774,
      "hair": 5775,
      "tw": 5776,
      "See": 5777,
      "aring": 5778,
      "sou": 5779,
      "Ed": 5780,
      "hell": 5781,
      "dark": 5782,
      "sal": 5783,
      "fif": 5784,
      "grand": 5785,
      "built": 5786,
      "raid": 5787,
      "across": 5788,
      "mur": 5789,
      "mand": 5790,
      "football": 5791,
      "net": 5792,
      "issu": 5793,
      "Pl": 5794,
      "cir": 5795,
      "gest": 5796,
      "teen": 5797,
      "outside": 5798,
      "bruary": 5799,
      "stud": 5800,
      "February": 5801,
      "mine": 5802,
      "worked": 5803,
      "mbers": 5804,
      "months": 5805,
      "German": 5806,
      "among": 5807,
      "club": 5808,
      "thousand": 5809,
      "hit": 5810,
      "hours": 5811,
      "bird": 5812,
      "2010": 5813,
      "roy": 5814,
      "flo": 5815,
      "Gen": 5816,
      "joy": 5817,
      "ends": 5818,
      "President": 5819,
      "till": 5820,
      "usually": 5821,
      "tit": 5822,
      "sport": 5823,
      "husband": 5824,
      "vir": 5825,
      "drink": 5826,
      "effect": 5827,
      "Like": 5828,
      "building": 5829,
      "Pa": 5830,
      "bal": 5831,
      "Rus": 5832,
      "profess": 5833,
      "Take": 5834,
      "vide": 5835,
      "City": 5836,
      "cil": 5837,
      "abo": 5838,
      "following": 5839,
      "Ear": 5840,
      "major": 5841,
      "cop": 5842,
      "ata": 5843,
      "wed": 5844,
      "ks": 5845,
      "rain": 5846,
      "camp": 5847,
      "har": 5848,
      "anc": 5849,
      "morrow": 5850,
      "Christ": 5851,
      "From": 5852,
      "paren": 5853,
      "terri": 5854,
      "career": 5855,
      "Lu": 5856,
      "NO": 5857,
      "feet": 5858,
      "proper": 5859,
      "history": 5860,
      "tried": 5861,
      "ences": 5862,
      "fur": 5863,
      "Dav": 5864,
      "Thanks": 5865,
      "lig": 5866,
      "irth": 5867,
      "Wait": 5868,
      "inc": 5869,
      "local": 5870,
      "tood": 5871,
      "Wal": 5872,
      "claim": 5873,
      "Rep": 5874,
      "Dis": 5875,
      "gold": 5876,
      "ming": 5877,
      "covered": 5878,
      "West": 5879,
      "west": 5880,
      "table": 5881,
      "lands": 5882,
      "gotta": 5883,
      "complete": 5884,
      "vot": 5885,
      "particular": 5886,
      "Dad": 5887,
      "Cent": 5888,
      "century": 5889,
      "mpion": 5890,
      "din": 5891,
      "dom": 5892,
      "inst": 5893,
      "0s": 5894,
      "dest": 5895,
      "written": 5896,
      "office": 5897,
      "However": 5898,
      "worth": 5899,
      "check": 5900,
      "cup": 5901,
      "attle": 5902,
      "fell": 5903,
      "Lon": 5904,
      "ES": 5905,
      "wall": 5906,
      "lives": 5907,
      "concer": 5908,
      "Peter": 5909,
      "ana": 5910,
      "action": 5911,
      "station": 5912,
      "ountain": 5913,
      "twenty": 5914,
      "cold": 5915,
      "Bu": 5916,
      "chance": 5917,
      "cry": 5918,
      "tro": 5919,
      "iled": 5920,
      "post": 5921,
      "adv": 5922,
      "spir": 5923,
      "En": 5924,
      "Ber": 5925,
      "Cor": 5926,
      "23": 5927,
      "whether": 5928,
      "Cap": 5929,
      "sea": 5930,
      "answer": 5931,
      "Great": 5932,
      "bri": 5933,
      "type": 5934,
      "La": 5935,
      "anyone": 5936,
      "worry": 5937,
      "ubl": 5938,
      "tors": 5939,
      "ula": 5940,
      "Ad": 5941,
      "match": 5942,
      "Sy": 5943,
      "ior": 5944,
      "population": 5945,
      "god": 5946,
      "zer": 5947,
      "nat": 5948,
      "ality": 5949,
      "shot": 5950,
      "members": 5951,
      "fav": 5952,
      "player": 5953,
      "boys": 5954,
      "knows": 5955,
      "Lord": 5956,
      "formed": 5957,
      "cum": 5958,
      "pract": 5959,
      "Pri": 5960,
      "general": 5961,
      "develop": 5962,
      "easy": 5963,
      "fly": 5964,
      "count": 5965,
      "cannot": 5966,
      "plic": 5967,
      "ples": 5968,
      "London": 5969,
      "secret": 5970,
      "common": 5971,
      "Inter": 5972,
      "cost": 5973,
      "descri": 5974,
      "served": 5975,
      "idence": 5976,
      "reen": 5977,
      "Sir": 5978,
      "rote": 5979,
      "doctor": 5980,
      "AND": 5981,
      "Bill": 5982,
      "bi": 5983,
      "experi": 5984,
      "write": 5985,
      "idge": 5986,
      "Ph": 5987,
      "changed": 5988,
      "flu": 5989,
      "seems": 5990,
      "event": 5991,
      "WH": 5992,
      "process": 5993,
      "region": 5994,
      "26": 5995,
      "mission": 5996,
      "dies": 5997,
      "south": 5998,
      "ban": 5999,
      "27": 6000,
      "trad": 6001,
      "ium": 6002,
      "lied": 6003,
      "fill": 6004,
      "pho": 6005,
      "irty": 6006,
      "everyone": 6007,
      "seemed": 6008,
      "bes": 6009,
      "paper": 6010,
      "birth": 6011,
      "wrote": 6012,
      "ently": 6013,
      "LA": 6014,
      "RO": 6015,
      "ked": 6016,
      "couple": 6017,
      "ribut": 6018,
      "tree": 6019,
      "exactly": 6020,
      "current": 6021,
      "appear": 6022,
      "afraid": 6023,
      "diffic": 6024,
      "28": 6025,
      "girls": 6026,
      "une": 6027,
      "mach": 6028,
      "ya": 6029,
      "tech": 6030,
      "ges": 6031,
      "cos": 6032,
      "mouth": 6033,
      "pot": 6034,
      "sof": 6035,
      "character": 6036,
      "England": 6037,
      "Pol": 6038,
      "Sam": 6039,
      "tomorrow": 6040,
      "itions": 6041,
      "100": 6042,
      "church": 6043,
      "Sorry": 6044,
      "pal": 6045,
      "sense": 6046,
      "Tell": 6047,
      "exc": 6048,
      "quar": 6049,
      "def": 6050,
      "invol": 6051,
      "Austral": 6052,
      "Ko": 6053,
      "da": 6054,
      "respon": 6055,
      "ime": 6056,
      "incre": 6057,
      "Fl": 6058,
      "fuck": 6059,
      "sn": 6060,
      "running": 6061,
      "control": 6062,
      "compet": 6063,
      "graph": 6064,
      "luck": 6065,
      "educ": 6066,
      "longer": 6067,
      "loy": 6068,
      "blue": 6069,
      "cross": 6070,
      "lies": 6071,
      "Scot": 6072,
      "unk": 6073,
      "stra": 6074,
      "ounds": 6075,
      "Ital": 6076,
      "service": 6077,
      "truth": 6078,
      "burn": 6079,
      "tired": 6080,
      "Erm": 6081,
      "information": 6082,
      "super": 6083,
      "somebody": 6084,
      "Mc": 6085,
      "America": 6086,
      "appeared": 6087,
      "clean": 6088,
      "author": 6089,
      "asure": 6090,
      "alright": 6091,
      "green": 6092,
      "kids": 6093,
      "List": 6094,
      "ae": 6095,
      "Part": 6096,
      "defin": 6097,
      "chair": 6098,
      "reco": 6099,
      "news": 6100,
      "stat": 6101,
      "mist": 6102,
      "language": 6103,
      "piece": 6104,
      "Mus": 6105,
      "tee": 6106,
      "conne": 6107,
      "lin": 6108,
      "kept": 6109,
      "gas": 6110,
      "mes": 6111,
      "force": 6112,
      "shit": 6113,
      "supposed": 6114,
      "aint": 6115,
      "ED": 6116,
      "sweet": 6117,
      "Canad": 6118,
      "department": 6119,
      "gain": 6120,
      "shop": 6121,
      "Two": 6122,
      "arri": 6123,
      "trave": 6124,
      "pes": 6125,
      "ount": 6126,
      "det": 6127,
      "GH": 6128,
      "period": 6129,
      "refer": 6130,
      "rep": 6131,
      "trouble": 6132,
      "bs": 6133,
      "School": 6134,
      "grad": 6135,
      "Su": 6136,
      "lady": 6137,
      "hurt": 6138,
      "represent": 6139,
      "OF": 6140,
      "ix": 6141,
      "fut": 6142,
      "bank": 6143,
      "cording": 6144,
      "space": 6145,
      "uation": 6146,
      "tonight": 6147,
      "za": 6148,
      "Stop": 6149,
      "ron": 6150,
      "cially": 6151,
      "bye": 6152,
      "feat": 6153,
      "ible": 6154,
      "level": 6155,
      "received": 6156,
      "ians": 6157,
      "accept": 6158,
      "ament": 6159,
      "div": 6160,
      "ified": 6161,
      "prison": 6162,
      "comput": 6163,
      "aven": 6164,
      "ention": 6165,
      "non": 6166,
      "icip": 6167,
      "needs": 6168,
      "ulti": 6169,
      "dden": 6170,
      "Am": 6171,
      "wide": 6172,
      "learn": 6173,
      "avy": 6174,
      "29": 6175,
      "Even": 6176,
      "themselves": 6177,
      "uses": 6178,
      "State": 6179,
      "thes": 6180,
      "television": 6181,
      "Afr": 6182,
      "ener": 6183,
      "acc": 6184,
      "acy": 6185,
      "everybody": 6186,
      "created": 6187,
      "ki": 6188,
      "stri": 6189,
      "Ca": 6190,
      "Sup": 6191,
      "chan": 6192,
      "ency": 6193,
      "books": 6194,
      "BE": 6195,
      "perhaps": 6196,
      "whatever": 6197,
      "itary": 6198,
      "entire": 6199,
      "waiting": 6200,
      "tries": 6201,
      "deep": 6202,
      "serious": 6203,
      "parents": 6204,
      "species": 6205,
      "acher": 6206,
      "agree": 6207,
      "sudden": 6208,
      "Bro": 6209,
      "track": 6210,
      "spital": 6211,
      "eye": 6212,
      "mic": 6213,
      "ilar": 6214,
      "va": 6215,
      "creat": 6216,
      "exist": 6217,
      "village": 6218,
      "People": 6219,
      "cat": 6220,
      "William": 6221,
      "surpr": 6222,
      "First": 6223,
      "zz": 6224,
      "straight": 6225,
      "sugg": 6226,
      "study": 6227,
      "suggest": 6228,
      "lls": 6229,
      "San": 6230,
      "ky": 6231,
      "fucking": 6232,
      "above": 6233,
      "dress": 6234,
      "rap": 6235,
      "include": 6236,
      "rul": 6237,
      "ror": 6238,
      "mot": 6239,
      "priv": 6240,
      "bers": 6241,
      "however": 6242,
      "Roman": 6243,
      "sco": 6244,
      "itive": 6245,
      "Che": 6246,
      "explain": 6247,
      "mir": 6248,
      "Que": 6249,
      "ught": 6250,
      "continu": 6251,
      "era": 6252,
      "perfect": 6253,
      "finished": 6254,
      "electr": 6255,
      "House": 6256,
      "Red": 6257,
      "nal": 6258,
      "IC": 6259,
      "HE": 6260,
      "letter": 6261,
      "imag": 6262,
      "George": 6263,
      "ka": 6264,
      "instead": 6265,
      "ician": 6266,
      "trust": 6267,
      "Give": 6268,
      "nine": 6269,
      "flow": 6270,
      "jud": 6271,
      "master": 6272,
      "forget": 6273,
      "AL": 6274,
      "feeling": 6275,
      "fix": 6276,
      "ager": 6277,
      "ato": 6278,
      "dou": 6279,
      "ses": 6280,
      "High": 6281,
      "future": 6282,
      "tori": 6283,
      "picture": 6284,
      "due": 6285,
      "40": 6286,
      "hang": 6287,
      "carry": 6288,
      "itself": 6289,
      "popular": 6290,
      "takes": 6291,
      "respect": 6292,
      "herself": 6293,
      "send": 6294,
      "president": 6295,
      "ib": 6296,
      "treat": 6297,
      "push": 6298,
      "horse": 6299,
      "activ": 6300,
      "Sha": 6301,
      "estern": 6302,
      "rich": 6303,
      "tour": 6304,
      "yle": 6305,
      "decided": 6306,
      "safe": 6307,
      "ships": 6308,
      "final": 6309,
      "problems": 6310,
      "sus": 6311,
      "nia": 6312,
      "tempt": 6313,
      "ched": 6314,
      "lim": 6315,
      "murder": 6316,
      "river": 6317,
      "ID": 6318,
      "Ale": 6319,
      "video": 6320,
      "cience": 6321,
      "hael": 6322,
      "giving": 6323,
      "court": 6324,
      "equ": 6325,
      "Jes": 6326,
      "airs": 6327,
      "tian": 6328,
      "2014": 6329,
      "earth": 6330,
      "corn": 6331,
      "sen": 6332,
      "bill": 6333,
      "TV": 6334,
      "League": 6335,
      "catch": 6336,
      "Nothing": 6337,
      "depend": 6338,
      "Ben": 6339,
      "telling": 6340,
      "lose": 6341,
      "shoot": 6342,
      "bag": 6343,
      "ays": 6344,
      "David": 6345,
      "passed": 6346,
      "fing": 6347,
      "throw": 6348,
      "cture": 6349,
      "health": 6350,
      "slow": 6351,
      "cts": 6352,
      "rog": 6353,
      "Mary": 6354,
      "CO": 6355,
      "Paul": 6356,
      "male": 6357,
      "pet": 6358,
      "recogn": 6359,
      "tar": 6360,
      "appoint": 6361,
      "Lou": 6362,
      "razy": 6363,
      "pati": 6364,
      "gentle": 6365,
      "ially": 6366,
      "wise": 6367,
      "Really": 6368,
      "ico": 6369,
      "host": 6370,
      "aver": 6371,
      "placed": 6372,
      "raft": 6373,
      "sian": 6374,
      "memor": 6375,
      "2011": 6376,
      "Em": 6377,
      "expect": 6378,
      "Mad": 6379,
      "Park": 6380,
      "Cal": 6381,
      "mas": 6382,
      "engine": 6383,
      "nin": 6384,
      "estab": 6385,
      "Indian": 6386,
      "social": 6387,
      "seem": 6388,
      "district": 6389,
      "happens": 6390,
      "necess": 6391,
      "jour": 6392,
      "except": 6393,
      "anyway": 6394,
      "mune": 6395,
      "Rich": 6396,
      "sequ": 6397,
      "object": 6398,
      "term": 6399,
      "2018": 6400,
      "Fin": 6401,
      "nel": 6402,
      "famous": 6403,
      "ife": 6404,
      "James": 6405,
      "Germany": 6406,
      "bow": 6407,
      "ref": 6408,
      "bel": 6409,
      "seat": 6410,
      "mad": 6411,
      "spec": 6412,
      "beat": 6413,
      "wit": 6414,
      "opened": 6415,
      "ization": 6416,
      "bt": 6417,
      "solute": 6418,
      "figure": 6419,
      "WE": 6420,
      "middle": 6421,
      "viously": 6422,
      "El": 6423,
      "econ": 6424,
      "relation": 6425,
      "danger": 6426,
      "prin": 6427,
      "weeks": 6428,
      "cried": 6429,
      "ctive": 6430,
      "Hu": 6431,
      "pan": 6432,
      "save": 6433,
      "East": 6434,
      "contain": 6435,
      "forward": 6436,
      "iding": 6437,
      "crit": 6438,
      "inde": 6439,
      "bear": 6440,
      "2013": 6441,
      "SE": 6442,
      "meant": 6443,
      "Frank": 6444,
      "invest": 6445,
      "ben": 6446,
      "(\"": 6447,
      "original": 6448,
      "ping": 6449,
      "evening": 6450,
      "standing": 6451,
      "cult": 6452,
      "Jim": 6453,
      "further": 6454,
      "meeting": 6455,
      "county": 6456,
      "teach": 6457,
      "games": 6458,
      "General": 6459,
      "2017": 6460,
      "ffic": 6461,
      "Our": 6462,
      "ahead": 6463,
      "wa": 6464,
      "sell": 6465,
      "funny": 6466,
      "AP": 6467,
      "role": 6468,
      "itted": 6469,
      "ington": 6470,
      "bey": 6471,
      "?”": 6472,
      "glad": 6473,
      "ric": 6474,
      "cool": 6475,
      "result": 6476,
      "Med": 6477,
      "ba": 6478,
      "market": 6479,
      "ara": 6480,
      "Grand": 6481,
      "sick": 6482,
      "comb": 6483,
      "natural": 6484,
      "River": 6485,
      "intro": 6486,
      "Spe": 6487,
      "stood": 6488,
      "loved": 6489,
      "sess": 6490,
      "returned": 6491,
      "quiet": 6492,
      "medi": 6493,
      "tin": 6494,
      "hey": 6495,
      "ffer": 6496,
      "ination": 6497,
      "ivid": 6498,
      "stage": 6499,
      "During": 6500,
      "doll": 6501,
      "crazy": 6502,
      "Mart": 6503,
      "capital": 6504,
      "VE": 6505,
      "moder": 6506,
      "Hel": 6507,
      "floor": 6508,
      "hop": 6509,
      "leaving": 6510,
      "viol": 6511,
      "Gover": 6512,
      "project": 6513,
      "riage": 6514,
      "hood": 6515,
      "moving": 6516,
      "parts": 6517,
      "political": 6518,
      "photo": 6519,
      "ni": 6520,
      "stick": 6521,
      "Cali": 6522,
      "express": 6523,
      "command": 6524,
      "race": 6525,
      "Sm": 6526,
      "bon": 6527,
      "AM": 6528,
      "base": 6529,
      "enter": 6530,
      "beginning": 6531,
      "mass": 6532,
      "Sim": 6533,
      "enjoy": 6534,
      "shut": 6535,
      "announ": 6536,
      "dinner": 6537,
      "fee": 6538,
      "date": 6539,
      "phys": 6540,
      "similar": 6541,
      "ju": 6542,
      "ils": 6543,
      "whom": 6544,
      "whose": 6545,
      "ceed": 6546,
      "Act": 6547,
      "places": 6548,
      "2012": 6549,
      "fir": 6550,
      "ging": 6551,
      "commune": 6552,
      "ability": 6553,
      "Sure": 6554,
      "pack": 6555,
      "ising": 6556,
      "relig": 6557,
      "mention": 6558,
      "Michael": 6559,
      "introdu": 6560,
      "rac": 6561,
      "honey": 6562,
      "sitting": 6563,
      "2020": 6564,
      "fornia": 6565,
      "mountain": 6566,
      "Sal": 6567,
      "AD": 6568,
      "Mom": 6569,
      "2008": 6570,
      "hospital": 6571,
      "UN": 6572,
      "mater": 6573,
      "interesting": 6574,
      "ient": 6575,
      "total": 6576,
      "separ": 6577,
      "Air": 6578,
      "drive": 6579,
      "Listen": 6580,
      "allowed": 6581,
      "2015": 6582,
      "Val": 6583,
      "cks": 6584,
      "Japanese": 6585,
      "compan": 6586,
      "AC": 6587,
      "Bet": 6588,
      "brain": 6589,
      "decis": 6590,
      "California": 6591,
      "consider": 6592,
      "reached": 6593,
      "load": 6594,
      "cook": 6595,
      "located": 6596,
      "subject": 6597,
      "individ": 6598,
      "dio": 6599,
      "ga": 6600,
      "abor": 6601,
      "direct": 6602,
      "community": 6603,
      "Republ": 6604,
      "Mer": 6605,
      "ensive": 6606,
      "Black": 6607,
      "neigh": 6608,
      "thy": 6609,
      "India": 6610,
      "actor": 6611,
      "\")": 6612,
      "forgot": 6613,
      "DO": 6614,
      "stone": 6615,
      "kiss": 6616,
      "wear": 6617,
      "Hen": 6618,
      "ify": 6619,
      "questions": 6620,
      "gard": 6621,
      "students": 6622,
      "oose": 6623,
      "countries": 6624,
      "vari": 6625,
      "quickly": 6626,
      "ender": 6627,
      "difficult": 6628,
      "2016": 6629,
      "mommy": 6630,
      "writing": 6631,
      "ties": 6632,
      "yours": 6633,
      "research": 6634,
      "Ha": 6635,
      "rup": 6636,
      "glass": 6637,
      "2007": 6638,
      "Very": 6639,
      "color": 6640,
      "GO": 6641,
      "apart": 6642,
      "espe": 6643,
      "towards": 6644,
      "rail": 6645,
      "tic": 6646,
      "card": 6647,
      "equal": 6648,
      "fellow": 6649,
      "Would": 6650,
      "ady": 6651,
      "simple": 6652,
      "famili": 6653,
      "destroy": 6654,
      "umb": 6655,
      "published": 6656,
      "cul": 6657,
      "responsi": 6658,
      "plant": 6659,
      "indust": 6660,
      "wild": 6661,
      "cam": 6662,
      "window": 6663,
      "2009": 6664,
      "uel": 6665,
      "pping": 6666,
      "energy": 6667,
      "TER": 6668,
      "fear": 6669,
      "fed": 6670,
      "spl": 6671,
      "hill": 6672,
      "cious": 6673,
      "Bel": 6674,
      "sky": 6675,
      "alive": 6676,
      "Mal": 6677,
      "Only": 6678,
      "2006": 6679,
      "followed": 6680,
      "suppose": 6681,
      "bul": 6682,
      "vic": 6683,
      "pected": 6684,
      "Party": 6685,
      "ert": 6686,
      "plays": 6687,
      "finish": 6688,
      "suffer": 6689,
      "leader": 6690,
      "arms": 6691,
      "190": 6692,
      "caught": 6693,
      "teacher": 6694,
      "daddy": 6695,
      "experience": 6696,
      "certainly": 6697,
      "Sch": 6698,
      "especially": 6699,
      "Most": 6700,
      "cand": 6701,
      "Which": 6702,
      "Was": 6703,
      "aha": 6704,
      "Mi": 6705,
      "ded": 6706,
      "street": 6707,
      "fan": 6708,
      "dig": 6709,
      "nes": 6710,
      "Pal": 6711,
      "Since": 6712,
      "Jesus": 6713,
      "Cour": 6714,
      "boat": 6715,
      "Ange": 6716,
      "anymore": 6717,
      "Colle": 6718,
      "psy": 6719,
      "belong": 6720,
      "miles": 6721,
      "lip": 6722,
      "ko": 6723,
      "needed": 6724,
      "block": 6725,
      "mocr": 6726,
      "upid": 6727,
      "paid": 6728,
      "ns": 6729,
      "AY": 6730,
      "soft": 6731,
      "Church": 6732,
      "Old": 6733,
      "deli": 6734,
      "Jer": 6735,
      "hol": 6736,
      "ALL": 6737,
      "Captain": 6738,
      "lying": 6739,
      "east": 6740,
      "chief": 6741,
      "discus": 6742,
      "istr": 6743,
      "Does": 6744,
      "Di": 6745,
      "tie": 6746,
      "municip": 6747,
      "rate": 6748,
      "Many": 6749,
      "mate": 6750,
      "ville": 6751,
      "situation": 6752,
      "Vi": 6753,
      "prove": 6754,
      "International": 6755,
      "icy": 6756,
      "logical": 6757,
      "bra": 6758,
      "peace": 6759,
      "produced": 6760,
      "join": 6761,
      "finally": 6762,
      "ena": 6763,
      "strange": 6764,
      "noon": 6765,
      "terms": 6766,
      "ordin": 6767,
      "hat": 6768,
      "ults": 6769,
      "active": 6770,
      "anybody": 6771,
      "fit": 6772,
      "Alex": 6773,
      "hous": 6774,
      "Other": 6775,
      "stopped": 6776,
      "hate": 6777,
      "2019": 6778,
      "neg": 6779,
      "exper": 6780,
      "constru": 6781,
      "stor": 6782,
      "joined": 6783,
      "although": 6784,
      "Its": 6785,
      "Mu": 6786,
      "swi": 6787,
      "iment": 6788,
      "bly": 6789,
      "burg": 6790,
      "tax": 6791,
      "modern": 6792,
      "influ": 6793,
      "value": 6794,
      "60": 6795,
      "dance": 6796,
      "broad": 6797,
      "fool": 6798,
      "version": 6799,
      "ably": 6800,
      "suit": 6801,
      "anch": 6802,
      "lia": 6803,
      "Cup": 6804,
      "gress": 6805,
      "Mor": 6806,
      "ston": 6807,
      "various": 6808,
      "agon": 6809,
      "Dep": 6810,
      "seeing": 6811,
      "bour": 6812,
      "los": 6813,
      "largest": 6814,
      "military": 6815,
      "decl": 6816,
      "boo": 6817,
      "shows": 6818,
      "hum": 6819,
      "stairs": 6820,
      "Res": 6821,
      "answered": 6822,
      "iction": 6823,
      "animals": 6824,
      "drug": 6825,
      "bridge": 6826,
      "Gree": 6827,
      "Roy": 6828,
      "Um": 6829,
      "island": 6830,
      "writer": 6831,
      "iling": 6832,
      "Sen": 6833,
      "ids": 6834,
      "nie": 6835,
      "bell": 6836,
      "size": 6837,
      "hung": 6838,
      "lier": 6839,
      "stant": 6840,
      "European": 6841,
      "egg": 6842,
      "Des": 6843,
      "apo": 6844,
      "professional": 6845,
      "involved": 6846,
      "summer": 6847,
      "leng": 6848,
      ".,": 6849,
      "bud": 6850,
      "spent": 6851,
      "occur": 6852,
      "RI": 6853,
      "favor": 6854,
      "ensus": 6855,
      "sight": 6856,
      "function": 6857,
      "Exc": 6858,
      "amount": 6859,
      "sour": 6860,
      "path": 6861,
      "asking": 6862,
      "charge": 6863,
      "Minister": 6864,
      "points": 6865,
      "BC": 6866,
      "sele": 6867,
      "bought": 6868,
      "cing": 6869,
      "gri": 6870,
      "Champion": 6871,
      "attempt": 6872,
      "Tur": 6873,
      "multi": 6874,
      "itional": 6875,
      "Tim": 6876,
      "ption": 6877,
      "comfort": 6878,
      "Ken": 6879,
      "coll": 6880,
      "considered": 6881,
      "vice": 6882,
      "wer": 6883,
      "immedi": 6884,
      "Never": 6885,
      "broke": 6886,
      "personal": 6887,
      "graphy": 6888,
      "kno": 6889,
      "astern": 6890,
      "gives": 6891,
      "development": 6892,
      "title": 6893,
      "Earth": 6894,
      "print": 6895,
      "Du": 6896,
      "Got": 6897,
      "note": 6898,
      "rough": 6899,
      "election": 6900,
      "text": 6901,
      "....": 6902,
      "somewhere": 6903,
      "solutely": 6904,
      "Vir": 6905,
      "recent": 6906,
      "aff": 6907,
      "audi": 6908,
      "grew": 6909,
      "ura": 6910,
      "iers": 6911,
      "illy": 6912,
      "continued": 6913,
      "nature": 6914,
      "2000": 6915,
      "els": 6916,
      "Excuse": 6917,
      "ument": 6918,
      "lam": 6919,
      "politician": 6920,
      "fund": 6921,
      "smo": 6922,
      "closed": 6923,
      "ker": 6924,
      "park": 6925,
      "Cam": 6926,
      "lines": 6927,
      "yo": 6928,
      "forest": 6929,
      "wash": 6930,
      "nder": 6931,
      "clothes": 6932,
      "data": 6933,
      "imp": 6934,
      "added": 6935,
      "grou": 6936,
      "regular": 6937,
      "heavy": 6938,
      "Thom": 6939,
      "ledge": 6940,
      "trees": 6941,
      "cape": 6942,
      "broken": 6943,
      "numbers": 6944,
      "computer": 6945,
      "Paris": 6946,
      "ome": 6947,
      "thanks": 6948,
      "rat": 6949,
      "stitution": 6950,
      "spirit": 6951,
      "director": 6952,
      "erson": 6953,
      "Robert": 6954,
      "areas": 6955,
      "Ter": 6956,
      "gor": 6957,
      "army": 6958,
      "Cr": 6959,
      "LI": 6960,
      "Father": 6961,
      "bles": 6962,
      "lymp": 6963,
      "White": 6964,
      "Little": 6965,
      "length": 6966,
      "Three": 6967,
      "THAT": 6968,
      ".'": 6969,
      "reed": 6970,
      "names": 6971,
      "store": 6972,
      "Cong": 6973,
      "vin": 6974,
      "education": 6975,
      "mix": 6976,
      "stars": 6977,
      "Mil": 6978,
      "radio": 6979,
      "Pat": 6980,
      "yer": 6981,
      "Bur": 6982,
      "roll": 6983,
      "stupid": 6984,
      "weight": 6985,
      "rian": 6986,
      "Gl": 6987,
      "Mex": 6988,
      "Jose": 6989,
      "Council": 6990,
      "Wash": 6991,
      "scient": 6992,
      "Chin": 6993,
      "meaning": 6994,
      "indeed": 6995,
      "nearly": 6996,
      "Ok": 6997,
      "Pre": 6998,
      "private": 6999,
      "!”": 7000,
      "lower": 7001,
      "founded": 7002,
      "Christian": 7003,
      "completely": 7004,
      "clock": 7005,
      "Ra": 7006,
      "rect": 7007,
      "college": 7008,
      "included": 7009,
      "Dam": 7010,
      "avail": 7011,
      "istic": 7012,
      "Mag": 7013,
      "share": 7014,
      "Joe": 7015,
      "directed": 7016,
      "pic": 7017,
      "damn": 7018,
      "forms": 7019,
      "hun": 7020,
      "pat": 7021,
      "sand": 7022,
      "simply": 7023,
      "offee": 7024,
      "normal": 7025,
      "curity": 7026,
      "doubt": 7027,
      "cro": 7028,
      "189": 7029,
      "ites": 7030,
      "warm": 7031,
      "Up": 7032,
      "aker": 7033,
      "accident": 7034,
      "terday": 7035,
      "Ham": 7036,
      "hero": 7037,
      "Australia": 7038,
      "sad": 7039,
      "coach": 7040,
      "anti": 7041,
      "suddenly": 7042,
      "iced": 7043,
      "pray": 7044,
      "speed": 7045,
      "Queen": 7046,
      "liter": 7047,
      "fol": 7048,
      "bound": 7049,
      "caused": 7050,
      "lished": 7051,
      "thod": 7052,
      "Bob": 7053,
      "ari": 7054,
      "difference": 7055,
      "nobody": 7056,
      "independ": 7057,
      "alo": 7058,
      "LO": 7059,
      "ram": 7060,
      "Green": 7061,
      "rights": 7062,
      "evidence": 7063,
      "itor": 7064,
      "Mark": 7065,
      "atives": 7066,
      "temper": 7067,
      "sounds": 7068,
      "irt": 7069,
      "award": 7070,
      "Olymp": 7071,
      "thirty": 7072,
      "blow": 7073,
      "fat": 7074,
      "groups": 7075,
      "approach": 7076,
      "China": 7077,
      "viron": 7078,
      "bility": 7079,
      "sme": 7080,
      "attention": 7081,
      "ential": 7082,
      "quired": 7083,
      "Mac": 7084,
      "associ": 7085,
      "issue": 7086,
      "reading": 7087,
      "gro": 7088,
      "tea": 7089,
      "tick": 7090,
      "ference": 7091,
      "thus": 7092,
      "watching": 7093,
      "antic": 7094,
      "promise": 7095,
      "ift": 7096,
      "While": 7097,
      "talked": 7098,
      "raised": 7099,
      "2005": 7100,
      "asing": 7101,
      "wonderful": 7102,
      "fresh": 7103,
      "ano": 7104,
      "plus": 7105,
      "Union": 7106,
      "xim": 7107,
      "iff": 7108,
      "Port": 7109,
      "bled": 7110,
      "Richard": 7111,
      "FF": 7112,
      "square": 7113,
      "phy": 7114,
      "Mother": 7115,
      "Vic": 7116,
      "ecut": 7117,
      "Sa": 7118,
      "lli": 7119,
      "prep": 7120,
      "vert": 7121,
      "battle": 7122,
      "stren": 7123,
      "vict": 7124,
      "fifty": 7125,
      "interested": 7126,
      "init": 7127,
      "extra": 7128,
      "Street": 7129,
      "iday": 7130,
      "marry": 7131,
      "Louis": 7132,
      "Ill": 7133,
      "gle": 7134,
      "SO": 7135,
      "hall": 7136,
      "Big": 7137,
      "lic": 7138,
      "pull": 7139,
      "helped": 7140,
      "assist": 7141,
      "GE": 7142,
      "ously": 7143,
      "percent": 7144,
      "threat": 7145,
      "visit": 7146,
      "istics": 7147,
      "arrest": 7148,
      "econom": 7149,
      "Rob": 7150,
      "regard": 7151,
      "bath": 7152,
      "lla": 7153,
      "calling": 7154,
      "College": 7155,
      "production": 7156,
      "Sar": 7157,
      "Washington": 7158,
      "Put": 7159,
      "forman": 7160,
      "shouldn": 7161,
      "Charles": 7162,
      "opport": 7163,
      "pig": 7164,
      "ises": 7165,
      "spot": 7166,
      "snow": 7167,
      "Mid": 7168,
      "science": 7169,
      "omen": 7170,
      "Phi": 7171,
      "Anne": 7172,
      "showed": 7173,
      "31": 7174,
      "bright": 7175,
      "plane": 7176,
      "uce": 7177,
      "feed": 7178,
      "orders": 7179,
      "lf": 7180,
      "Christmas": 7181,
      "LD": 7182,
      "style": 7183,
      "afternoon": 7184,
      "ease": 7185,
      "announced": 7186,
      "iel": 7187,
      "80": 7188,
      "History": 7189,
      "ops": 7190,
      "Before": 7191,
      "marriage": 7192,
      "bottom": 7193,
      "streng": 7194,
      "opportun": 7195,
      "useum": 7196,
      "Henry": 7197,
      "weap": 7198,
      "Str": 7199,
      "below": 7200,
      "mov": 7201,
      "()": 7202,
      "pounds": 7203,
      "uni": 7204,
      "Over": 7205,
      "apped": 7206,
      "nation": 7207,
      "mat": 7208,
      "astic": 7209,
      "ERE": 7210,
      "choice": 7211,
      "likely": 7212,
      "training": 7213,
      "Master": 7214,
      "higher": 7215,
      "careful": 7216,
      "protect": 7217,
      "happening": 7218,
      "ours": 7219,
      "itely": 7220,
      "cred": 7221,
      "ators": 7222,
      "model": 7223,
      "dut": 7224,
      "inte": 7225,
      "page": 7226,
      "detail": 7227,
      "onto": 7228,
      "ald": 7229,
      "developed": 7230,
      "yellow": 7231,
      "ida": 7232,
      "Canada": 7233,
      "aves": 7234,
      "2004": 7235,
      "changes": 7236,
      "Sat": 7237,
      "necessary": 7238,
      "icle": 7239,
      "Club": 7240,
      "abs": 7241,
      "states": 7242,
      "Penn": 7243,
      "ministr": 7244,
      "loss": 7245,
      "Their": 7246,
      "inn": 7247,
      "soul": 7248,
      "District": 7249,
      "speaking": 7250,
      "manage": 7251,
      "lets": 7252,
      "Reg": 7253,
      "rub": 7254,
      "account": 7255,
      "contract": 7256,
      "machine": 7257,
      "crow": 7258,
      "habit": 7259,
      "More": 7260,
      "Love": 7261,
      "tur": 7262,
      "carried": 7263,
      "Tex": 7264,
      "ider": 7265,
      "KE": 7266,
      "usion": 7267,
      "weren": 7268,
      "aste": 7269,
      "epis": 7270,
      "nut": 7271,
      "Hold": 7272,
      "site": 7273,
      "nose": 7274,
      "ables": 7275,
      "Au": 7276,
      "ride": 7277,
      "center": 7278,
      "usual": 7279,
      "rout": 7280,
      "Out": 7281,
      "moon": 7282,
      "available": 7283,
      "offer": 7284,
      "spoke": 7285,
      "stories": 7286,
      "Law": 7287,
      "starting": 7288,
      "milk": 7289,
      "vironment": 7290,
      "cases": 7291,
      "Ver": 7292,
      "yn": 7293,
      "amaz": 7294,
      "coffee": 7295,
      "condu": 7296,
      "lovely": 7297,
      "About": 7298,
      "NA": 7299,
      "liked": 7300,
      "access": 7301,
      "putting": 7302,
      "Saint": 7303,
      "Prince": 7304,
      "none": 7305,
      "established": 7306,
      "Gold": 7307,
      "Could": 7308,
      "Those": 7309,
      "thro": 7310,
      "ration": 7311,
      "neck": 7312,
      "Span": 7313,
      "Army": 7314,
      "́n": 7315,
      "society": 7316,
      "rie": 7317,
      "ilities": 7318,
      "worse": 7319,
      "faith": 7320,
      "Bye": 7321,
      "legal": 7322,
      "skin": 7323,
      "apers": 7324,
      "wing": 7325,
      "Chinese": 7326,
      "kin": 7327,
      "cket": 7328,
      "Hill": 7329,
      "demand": 7330,
      "birthday": 7331,
      "create": 7332,
      "Africa": 7333,
      "ension": 7334,
      "drop": 7335,
      "ote": 7336,
      "huge": 7337,
      "decision": 7338,
      "yesterday": 7339,
      "schools": 7340,
      "ado": 7341,
      "shire": 7342,
      "Ru": 7343,
      "owned": 7344,
      "average": 7345,
      "nu": 7346,
      "tail": 7347,
      "knowledge": 7348,
      "MAN": 7349,
      "Italian": 7350,
      "successful": 7351,
      "busy": 7352,
      "HO": 7353,
      "dry": 7354,
      "pical": 7355,
      "movement": 7356,
      "earlier": 7357,
      "message": 7358,
      "35": 7359,
      "CE": 7360,
      "address": 7361,
      "legs": 7362,
      "learned": 7363,
      "volution": 7364,
      "commit": 7365,
      "method": 7366,
      "Russian": 7367,
      "specific": 7368,
      "garden": 7369,
      "flowers": 7370,
      "arg": 7371,
      "esh": 7372,
      "Fer": 7373,
      "illa": 7374,
      "eating": 7375,
      "kn": 7376,
      "repe": 7377,
      "itude": 7378,
      "distance": 7379,
      "leaves": 7380,
      "spend": 7381,
      "berg": 7382,
      "tran": 7383,
      "formula": 7384,
      "welve": 7385,
      "cele": 7386,
      "bing": 7387,
      "craft": 7388,
      "fant": 7389,
      "ials": 7390,
      "songs": 7391,
      "honest": 7392,
      "performan": 7393,
      "movies": 7394,
      "2001": 7395,
      "edge": 7396,
      "Sing": 7397,
      "chick": 7398,
      "70": 7399,
      "Franc": 7400,
      "princi": 7401,
      "phe": 7402,
      "guard": 7403,
      "Hur": 7404,
      "arrow": 7405,
      "docum": 7406,
      "rule": 7407,
      "Scott": 7408,
      "tion": 7409,
      "via": 7410,
      "Ba": 7411,
      "Kore": 7412,
      "Virgin": 7413,
      "celebr": 7414,
      "Fred": 7415,
      "singer": 7416,
      "utter": 7417,
      "cit": 7418,
      "fault": 7419,
      "Prof": 7420,
      "corner": 7421,
      "relationship": 7422,
      "international": 7423,
      "Sund": 7424,
      "cked": 7425,
      "lvan": 7426,
      "Ano": 7427,
      "Once": 7428,
      "lor": 7429,
      "terrible": 7430,
      "therefore": 7431,
      "birds": 7432,
      "elected": 7433,
      "Say": 7434,
      "official": 7435,
      "2021": 7436,
      "Ze": 7437,
      "cow": 7438,
      "glo": 7439,
      "ona": 7440,
      "gree": 7441,
      "Wow": 7442,
      "bling": 7443,
      "investig": 7444,
      "pair": 7445,
      "satis": 7446,
      "welcome": 7447,
      "Sou": 7448,
      "Day": 7449,
      "frog": 7450,
      "Everything": 7451,
      "ander": 7452,
      "Mat": 7453,
      "Hall": 7454,
      "ech": 7455,
      "Keep": 7456,
      "pieces": 7457,
      "Award": 7458,
      "rey": 7459,
      "iron": 7460,
      "impress": 7461,
      "rose": 7462,
      "ita": 7463,
      "tall": 7464,
      "aware": 7465,
      "animal": 7466,
      "extre": 7467,
      "occas": 7468,
      "Wil": 7469,
      "jump": 7470,
      "liament": 7471,
      "Sum": 7472,
      "claimed": 7473,
      "Super": 7474,
      "events": 7475,
      "Island": 7476,
      "municipality": 7477,
      "mhm": 7478,
      "han": 7479,
      "signed": 7480,
      "hole": 7481,
      "sch": 7482,
      "NE": 7483,
      "ja": 7484,
      "avo": 7485,
      "spring": 7486,
      "contact": 7487,
      "older": 7488,
      "range": 7489,
      "appointed": 7490,
      "Bal": 7491,
      "holding": 7492,
      "census": 7493,
      "istan": 7494,
      "pun": 7495,
      "respond": 7496,
      "pi": 7497,
      "section": 7498,
      "scri": 7499,
      "scared": 7500,
      "fail": 7501,
      "sens": 7502,
      "ideas": 7503,
      "immediately": 7504,
      "lvania": 7505,
      "goal": 7506,
      "186": 7507,
      "erve": 7508,
      "mostly": 7509,
      "fortun": 7510,
      "45": 7511,
      "ji": 7512,
      "champion": 7513,
      "truck": 7514,
      "nur": 7515,
      "theory": 7516,
      "aries": 7517,
      "tho": 7518,
      "Court": 7519,
      "scene": 7520,
      "Im": 7521,
      "Another": 7522,
      "Swed": 7523,
      "fighting": 7524,
      "weak": 7525,
      "trade": 7526,
      "farm": 7527,
      "asket": 7528,
      "2003": 7529,
      "vey": 7530,
      "chi": 7531,
      "Ele": 7532,
      "arent": 7533,
      "ented": 7534,
      "lots": 7535,
      "2002": 7536,
      "ull": 7537,
      "Chic": 7538,
      "Thomas": 7539,
      "Cath": 7540,
      "asant": 7541,
      "discovered": 7542,
      "Texas": 7543,
      "Ap": 7544,
      "nic": 7545,
      "ria": 7546,
      "Mhm": 7547,
      "western": 7548,
      "related": 7549,
      "believed": 7550,
      "serve": 7551,
      "gradu": 7552,
      "deter": 7553,
      "Spanish": 7554,
      "benef": 7555,
      "aign": 7556,
      "individual": 7557,
      "central": 7558,
      "coast": 7559,
      "sey": 7560,
      "link": 7561,
      "BO": 7562,
      "Republic": 7563,
      "Bab": 7564,
      "conscious": 7565,
      "rot": 7566,
      "onel": 7567,
      "stitute": 7568,
      "beyond": 7569,
      "purpose": 7570,
      "Democr": 7571,
      "Brown": 7572,
      "continue": 7573,
      "Carol": 7574,
      "Martin": 7575,
      "Wel": 7576,
      "According": 7577,
      "emer": 7578,
      "inct": 7579,
      "oil": 7580,
      "houses": 7581,
      "Pennsy": 7582,
      "kick": 7583,
      "Music": 7584,
      "sym": 7585,
      "arrived": 7586,
      "atory": 7587,
      "whis": 7588,
      "crime": 7589,
      "Braz": 7590,
      "bio": 7591,
      "sac": 7592,
      "leep": 7593,
      "walked": 7594,
      "distribut": 7595,
      "beg": 7596,
      "itar": 7597,
      "fourth": 7598,
      "Mill": 7599,
      "cher": 7600,
      "services": 7601,
      "sia": 7602,
      "arts": 7603,
      "Eli": 7604,
      "walking": 7605,
      "lights": 7606,
      "Doctor": 7607,
      "officer": 7608,
      "tu": 7609,
      "een": 7610,
      "phi": 7611,
      "VER": 7612,
      "cab": 7613,
      "practice": 7614,
      "chall": 7615,
      "Pennsylvania": 7616,
      "cean": 7617,
      "Royal": 7618,
      "female": 7619,
      "acqu": 7620,
      "mum": 7621,
      "review": 7622,
      "firm": 7623,
      "medic": 7624,
      "Chicago": 7625,
      "Bas": 7626,
      "double": 7627,
      "imagine": 7628,
      "notice": 7629,
      "lift": 7630,
      "comed": 7631,
      "communic": 7632,
      "Lee": 7633,
      "execut": 7634,
      "Lat": 7635,
      "bomb": 7636,
      "odd": 7637,
      "sett": 7638,
      "price": 7639,
      "positive": 7640,
      "ification": 7641,
      "brown": 7642,
      "Tor": 7643,
      "trick": 7644,
      "opin": 7645,
      "Del": 7646,
      "Four": 7647,
      "replied": 7648,
      "ners": 7649,
      "environment": 7650,
      "nology": 7651,
      "filled": 7652,
      "pow": 7653,
      "direction": 7654,
      "utch": 7655,
      "material": 7656,
      "188": 7657,
      "UT": 7658,
      "Sil": 7659,
      "release": 7660,
      "discuss": 7661,
      "IR": 7662,
      "Sun": 7663,
      "anal": 7664,
      "boss": 7665,
      "frequ": 7666,
      "cars": 7667,
      "WI": 7668,
      "described": 7669,
      "stream": 7670,
      "500": 7671,
      "Hon": 7672,
      "pictures": 7673,
      "gather": 7674,
      "leading": 7675,
      "forces": 7676,
      "tells": 7677,
      "Foot": 7678,
      "wedding": 7679,
      "enemy": 7680,
      "forced": 7681,
      "according": 7682,
      "́s": 7683,
      "settle": 7684,
      "strength": 7685,
      "crimin": 7686,
      "PE": 7687,
      "enced": 7688,
      "possess": 7689,
      "Although": 7690,
      "hors": 7691,
      "scar": 7692,
      "Something": 7693,
      "particip": 7694,
      "90": 7695,
      "ero": 7696,
      "slight": 7697,
      "spread": 7698,
      "surface": 7699,
      "thin": 7700,
      "twice": 7701,
      "Mont": 7702,
      "angry": 7703,
      "uit": 7704,
      "loso": 7705,
      "Kingdom": 7706,
      "shown": 7707,
      "Hal": 7708,
      "minister": 7709,
      "Perhaps": 7710,
      "Ce": 7711,
      "shad": 7712,
      "achie": 7713,
      "rules": 7714,
      "Phil": 7715,
      "Ooh": 7716,
      "ired": 7717,
      "hide": 7718,
      "letters": 7719,
      "Atl": 7720,
      "soldiers": 7721,
      "Sovi": 7722,
      "pressure": 7723,
      "urs": 7724,
      "aled": 7725,
      "Open": 7726,
      "asy": 7727,
      "condition": 7728,
      "calls": 7729,
      "Bre": 7730,
      "Today": 7731,
      "guest": 7732,
      "rob": 7733,
      "Ir": 7734,
      "partner": 7735,
      "Dar": 7736,
      "missed": 7737,
      "dangerous": 7738,
      "itchen": 7739,
      "screen": 7740,
      "Smith": 7741,
      "Town": 7742,
      "recorded": 7743,
      "occup": 7744,
      "missing": 7745,
      "launch": 7746,
      "uk": 7747,
      "code": 7748,
      "mary": 7749,
      "2022": 7750,
      "zen": 7751,
      ";&": 7752,
      "GHT": 7753,
      "Sometimes": 7754,
      "lif": 7755,
      "twelve": 7756,
      "easily": 7757,
      "shar": 7758,
      "Far": 7759,
      "honor": 7760,
      "Met": 7761,
      "ais": 7762,
      "vote": 7763,
      "Italy": 7764,
      "IM": 7765,
      "ota": 7766,
      "correct": 7767,
      "preci": 7768,
      "degree": 7769,
      "acting": 7770,
      "memory": 7771,
      "beha": 7772,
      "entered": 7773,
      "lucky": 7774,
      "Bay": 7775,
      "ancient": 7776,
      "Huh": 7777,
      "Rock": 7778,
      "ius": 7779,
      "Fine": 7780,
      "rush": 7781,
      "systems": 7782,
      "lunch": 7783,
      "thinks": 7784,
      "forth": 7785,
      "unless": 7786,
      "aps": 7787,
      "histor": 7788,
      "rial": 7789,
      "security": 7790,
      "Under": 7791,
      "employ": 7792,
      "ode": 7793,
      "property": 7794,
      "Young": 7795,
      "student": 7796,
      "lan": 7797,
      "youth": 7798,
      "eds": 7799,
      "debut": 7800,
      "itation": 7801,
      "angle": 7802,
      "flat": 7803,
      "Mur": 7804,
      "newsp": 7805,
      "Cle": 7806,
      "bread": 7807,
      "ov": 7808,
      "Profess": 7809,
      "extreme": 7810,
      "Pan": 7811,
      "Ray": 7812,
      "captain": 7813,
      "HA": 7814,
      "ox": 7815,
      "patient": 7816,
      "raise": 7817,
      "Stu": 7818,
      "Men": 7819,
      "absolutely": 7820,
      "ini": 7821,
      "Kar": 7822,
      "thou": 7823,
      "Life": 7824,
      "Son": 7825,
      "Ty": 7826,
      "proud": 7827,
      "solution": 7828,
      "dollars": 7829,
      "ashion": 7830,
      "poet": 7831,
      "hasn": 7832,
      "dropped": 7833,
      "zed": 7834,
      "minus": 7835,
      "Comp": 7836,
      "Acade": 7837,
      "choose": 7838,
      "signific": 7839,
      "cities": 7840,
      "iles": 7841,
      "heads": 7842,
      "winter": 7843,
      "ordered": 7844,
      "laid": 7845,
      "aine": 7846,
      "anywhere": 7847,
      "bac": 7848,
      "indic": 7849,
      "bother": 7850,
      "inj": 7851,
      "survi": 7852,
      "teams": 7853,
      "shoes": 7854,
      "Associ": 7855,
      "quarter": 7856,
      "players": 7857,
      "families": 7858,
      "Gi": 7859,
      "Prin": 7860,
      "painting": 7861,
      "inno": 7862,
      "Wood": 7863,
      "mistake": 7864,
      "Tal": 7865,
      "187": 7866,
      "Art": 7867,
      "convers": 7868,
      "gal": 7869,
      "pool": 7870,
      "Time": 7871,
      "growing": 7872,
      "km": 7873,
      "Alright": 7874,
      "36": 7875,
      "campaign": 7876,
      "kne": 7877,
      "1999": 7878,
      "Best": 7879,
      "capt": 7880,
      "stro": 7881,
      "throughout": 7882,
      "Nice": 7883,
      "Shut": 7884,
      "Soviet": 7885,
      "weather": 7886,
      "lord": 7887,
      "forty": 7888,
      "Chief": 7889,
      "taught": 7890,
      "AB": 7891,
      "aret": 7892,
      "disease": 7893,
      "ival": 7894,
      "minated": 7895,
      "ulations": 7896,
      "affe": 7897,
      "finger": 7898,
      "vere": 7899,
      "idi": 7900,
      "Gar": 7901,
      "Star": 7902,
      "Flor": 7903,
      "agreed": 7904,
      "jest": 7905,
      "types": 7906,
      "bigger": 7907,
      "jack": 7908,
      "opportunity": 7909,
      "Play": 7910,
      "dar": 7911,
      "staff": 7912,
      "surprise": 7913,
      "heat": 7914,
      "Both": 7915,
      "III": 7916,
      "ively": 7917,
      "mentioned": 7918,
      "kitchen": 7919,
      "corpor": 7920,
      "temp": 7921,
      "victim": 7922,
      "policy": 7923,
      "surround": 7924,
      "Tri": 7925,
      "rank": 7926,
      "shout": 7927,
      "Central": 7928,
      "Greek": 7929,
      "includes": 7930,
      "Den": 7931,
      "copy": 7932,
      "Sto": 7933,
      "counter": 7934,
      "gate": 7935,
      "crew": 7936,
      "Secret": 7937,
      "cise": 7938,
      "hello": 7939,
      "magaz": 7940,
      "Long": 7941,
      "bid": 7942,
      "impossible": 7943,
      "breath": 7944,
      "Pet": 7945,
      "oom": 7946,
      "electric": 7947,
      "01": 7948,
      "issues": 7949,
      "cream": 7950,
      "highest": 7951,
      "grave": 7952,
      "opening": 7953,
      "Na": 7954,
      "escape": 7955,
      "manager": 7956,
      "obviously": 7957,
      "province": 7958,
      "eventually": 7959,
      "tape": 7960,
      "Sand": 7961,
      "slowly": 7962,
      "driving": 7963,
      "prince": 7964,
      "determin": 7965,
      "yard": 7966,
      "administr": 7967,
      "Call": 7968,
      "studied": 7969,
      "mere": 7970,
      "particularly": 7971,
      "climb": 7972,
      "nest": 7973,
      "remained": 7974,
      "vels": 7975,
      "Hy": 7976,
      "MO": 7977,
      "Cathol": 7978,
      "FOR": 7979,
      "CK": 7980,
      "Egy": 7981,
      "concept": 7982,
      "becomes": 7983,
      "pleasure": 7984,
      "pred": 7985,
      "iana": 7986,
      "evil": 7987,
      "medical": 7988,
      "steps": 7989,
      "silver": 7990,
      "smaller": 7991,
      "Adam": 7992,
      "focus": 7993,
      "scream": 7994,
      "sides": 7995,
      "smile": 7996,
      "Women": 7997,
      "unders": 7998,
      "37": 7999,
      "Lady": 8000,
      "ONE": 8001,
      "worried": 8002,
      "picked": 8003,
      "Francis": 8004,
      "DE": 8005,
      "runs": 8006,
      "explo": 8007,
      "maid": 8008,
      "ained": 8009,
      "definitely": 8010,
      "--------": 8011,
      "brary": 8012,
      "wick": 8013,
      "currently": 8014,
      "ante": 8015,
      "Has": 8016,
      "py": 8017,
      "bits": 8018,
      "tight": 8019,
      "brothers": 8020,
      "crack": 8021,
      "expected": 8022,
      "actions": 8023,
      "anta": 8024,
      "fashion": 8025,
      "results": 8026,
      "hid": 8027,
      "toward": 8028,
      "heaven": 8029,
      "icans": 8030,
      "reve": 8031,
      "Show": 8032,
      "shape": 8033,
      "travel": 8034,
      "'.": 8035,
      "cancer": 8036,
      "ada": 8037,
      "metal": 8038,
      "ives": 8039,
      "concl": 8040,
      "planet": 8041,
      "blind": 8042,
      "provide": 8043,
      "studio": 8044,
      "FA": 8045,
      "amazing": 8046,
      "operation": 8047,
      "plants": 8048,
      "interview": 8049,
      "dim": 8050,
      "Road": 8051,
      "trip": 8052,
      "structure": 8053,
      "aur": 8054,
      "pill": 8055,
      "lder": 8056,
      "Emp": 8057,
      "demon": 8058,
      "generally": 8059,
      "estival": 8060,
      "grass": 8061,
      "promot": 8062,
      "tot": 8063,
      "wearing": 8064,
      "eli": 8065,
      "tellig": 8066,
      "lect": 8067,
      "1998": 8068,
      "34": 8069,
      "grown": 8070,
      "actress": 8071,
      "hurry": 8072,
      "verse": 8073,
      "coat": 8074,
      "smart": 8075,
      "brief": 8076,
      "saved": 8077,
      "kinds": 8078,
      "breakfast": 8079,
      "hungry": 8080,
      "performance": 8081,
      "Mel": 8082,
      "Dick": 8083,
      "Fed": 8084,
      "brand": 8085,
      "learning": 8086,
      "designed": 8087,
      "Rad": 8088,
      "ases": 8089,
      "Sus": 8090,
      "laughing": 8091,
      "willing": 8092,
      "1996": 8093,
      "ordinary": 8094,
      "Rose": 8095,
      "courage": 8096,
      "likes": 8097,
      "university": 8098,
      "plans": 8099,
      "Virginia": 8100,
      "larger": 8101,
      "risk": 8102,
      "aling": 8103,
      "horses": 8104,
      "ades": 8105,
      "empty": 8106,
      "sam": 8107,
      "mob": 8108,
      "Kim": 8109,
      "Western": 8110,
      "dish": 8111,
      "artist": 8112,
      "refle": 8113,
      "Fox": 8114,
      "mode": 8115,
      "Girl": 8116,
      "witness": 8117,
      "companies": 8118,
      "strug": 8119,
      "singing": 8120,
      "culture": 8121,
      "Dor": 8122,
      "dare": 8123,
      "Cur": 8124,
      "ining": 8125,
      "fra": 8126,
      "stuck": 8127,
      "wound": 8128,
      "Brother": 8129,
      "Sunday": 8130,
      "pup": 8131,
      "Help": 8132,
      "Congress": 8133,
      "amed": 8134,
      "addition": 8135,
      "dogs": 8136,
      "izing": 8137,
      "consist": 8138,
      "reported": 8139,
      "instr": 8140,
      "bless": 8141,
      "NOW": 8142,
      "drew": 8143,
      "requ": 8144,
      "prevent": 8145,
      "ray": 8146,
      "keeping": 8147,
      "industry": 8148,
      "fied": 8149,
      "omy": 8150,
      "competition": 8151,
      "basket": 8152,
      "sports": 8153,
      "Jane": 8154,
      "citiz": 8155,
      "source": 8156,
      "African": 8157,
      "thick": 8158,
      "beth": 8159,
      "applic": 8160,
      "foreign": 8161,
      "negative": 8162,
      "Nobody": 8163,
      "CA": 8164,
      "emot": 8165,
      "athe": 8166,
      "zo": 8167,
      "symp": 8168,
      "gency": 8169,
      "starts": 8170,
      "quality": 8171,
      "storm": 8172,
      "responsible": 8173,
      "Fuck": 8174,
      "greatest": 8175,
      "produce": 8176,
      "Ire": 8177,
      "powerful": 8178,
      "judge": 8179,
      "38": 8180,
      "Next": 8181,
      "Rome": 8182,
      "Land": 8183,
      "deliver": 8184,
      "WHAT": 8185,
      "fright": 8186,
      "Uncle": 8187,
      "philoso": 8188,
      "remark": 8189,
      "conditions": 8190,
      "tray": 8191,
      "ulous": 8192,
      "duty": 8193,
      "Boy": 8194,
      "perform": 8195,
      "Mexico": 8196,
      "ancing": 8197,
      "greater": 8198,
      "Isn": 8199,
      "Make": 8200,
      "speech": 8201,
      "tric": 8202,
      "Bud": 8203,
      "wis": 8204,
      "lack": 8205,
      "Los": 8206,
      "Academy": 8207,
      "sake": 8208,
      "features": 8209,
      "centre": 8210,
      "zero": 8211,
      "divided": 8212,
      "vince": 8213,
      "standard": 8214,
      "Canadian": 8215,
      "handle": 8216,
      "Australian": 8217,
      "TS": 8218,
      "Dou": 8219,
      "antly": 8220,
      "LY": 8221,
      "oppos": 8222,
      "hotel": 8223,
      "calm": 8224,
      "igned": 8225,
      "performed": 8226,
      "advant": 8227,
      "Off": 8228,
      "wine": 8229,
      "Major": 8230,
      "originally": 8231,
      "TE": 8232,
      "gay": 8233,
      "bury": 8234,
      "rig": 8235,
      "ION": 8236,
      "ashed": 8237,
      "Stan": 8238,
      "ski": 8239,
      "MY": 8240,
      "freed": 8241,
      "neither": 8242,
      "Turn": 8243,
      "complex": 8244,
      "pite": 8245,
      "retired": 8246,
      "Second": 8247,
      "Spain": 8248,
      "rious": 8249,
      "asse": 8250,
      "behavi": 8251,
      "Back": 8252,
      "Nat": 8253,
      "pin": 8254,
      "Cy": 8255,
      "strate": 8256,
      "weird": 8257,
      "beauty": 8258,
      "Remember": 8259,
      "contribut": 8260,
      "UK": 8261,
      "teeth": 8262,
      "san": 8263,
      "offered": 8264,
      "von": 8265,
      "comfortable": 8266,
      "roof": 8267,
      "icles": 8268,
      "Ram": 8269,
      "turns": 8270,
      "bloody": 8271,
      "tool": 8272,
      "construction": 8273,
      "reck": 8274,
      "product": 8275,
      "flower": 8276,
      "Isra": 8277,
      "32": 8278,
      "1995": 8279,
      "pound": 8280,
      "Care": 8281,
      "Hot": 8282,
      "ansas": 8283,
      "becoming": 8284,
      "defe": 8285,
      "phen": 8286,
      "tes": 8287,
      "MA": 8288,
      "uncle": 8289,
      "cere": 8290,
      "eh": 8291,
      "bitch": 8292,
      "Governor": 8293,
      "appearance": 8294,
      "division": 8295,
      "1994": 8296,
      "pel": 8297,
      "mond": 8298,
      "rooms": 8299,
      "Ob": 8300,
      "wealth": 8301,
      "eper": 8302,
      "lu": 8303,
      "novel": 8304,
      "measure": 8305,
      "ourselves": 8306,
      "tempor": 8307,
      "myster": 8308,
      "ladies": 8309,
      "organization": 8310,
      "media": 8311,
      "Government": 8312,
      "Ly": 8313,
      "ore": 8314,
      "zy": 8315,
      "Russia": 8316,
      "cake": 8317,
      "appears": 8318,
      "mort": 8319,
      "reasons": 8320,
      "Sur": 8321,
      "orrow": 8322,
      "journal": 8323,
      "Lake": 8324,
      "motor": 8325,
      "hardly": 8326,
      "mechan": 8327,
      "uten": 8328,
      "Professor": 8329,
      "estim": 8330,
      "commer": 8331,
      "Charlie": 8332,
      "Lin": 8333,
      "Championship": 8334,
      "wake": 8335,
      "stre": 8336,
      "umber": 8337,
      "realize": 8338,
      "increase": 8339,
      "waste": 8340,
      "transfer": 8341,
      "wheel": 8342,
      "neighbor": 8343,
      "Fort": 8344,
      "evol": 8345,
      "winning": 8346,
      "pitch": 8347,
      "meat": 8348,
      "owner": 8349,
      "shi": 8350,
      "religious": 8351,
      "oured": 8352,
      "wet": 8353,
      "affair": 8354,
      "biggest": 8355,
      "basically": 8356,
      "flight": 8357,
      "ooh": 8358,
      "separate": 8359,
      "unit": 8360,
      "turning": 8361,
      "asc": 8362,
      "ller": 8363,
      "Later": 8364,
      "Move": 8365,
      "chem": 8366,
      "killing": 8367,
      "Cos": 8368,
      "aging": 8369,
      "Gor": 8370,
      "Mike": 8371,
      "civil": 8372,
      "Also": 8373,
      "Haw": 8374,
      "isl": 8375,
      "camera": 8376,
      "Leave": 8377,
      "characters": 8378,
      "constant": 8379,
      "ening": 8380,
      "asty": 8381,
      "Han": 8382,
      "Joseph": 8383,
      "lips": 8384,
      "proved": 8385,
      "Catholic": 8386,
      "rare": 8387,
      "eteen": 8388,
      "Dire": 8389,
      "rise": 8390,
      "patter": 8391,
      "physical": 8392,
      "Yo": 8393,
      "laws": 8394,
      "silly": 8395,
      "cles": 8396,
      "ume": 8397,
      "switch": 8398,
      "Association": 8399,
      "finan": 8400,
      "delight": 8401,
      "Arab": 8402,
      "cure": 8403,
      "Jean": 8404,
      "decide": 8405,
      "forever": 8406,
      "totally": 8407,
      "Still": 8408,
      "taste": 8409,
      "mitted": 8410,
      "aces": 8411,
      "RA": 8412,
      "crying": 8413,
      "gentlemen": 8414,
      "39": 8415,
      "directly": 8416,
      "cting": 8417,
      "northern": 8418,
      "sexual": 8419,
      "peror": 8420,
      "eggs": 8421,
      "symbo": 8422,
      "Commun": 8423,
      "remind": 8424,
      "critic": 8425,
      "replaced": 8426,
      "1997": 8427,
      "clearly": 8428,
      "oned": 8429,
      "contr": 8430,
      "sche": 8431,
      "prepared": 8432,
      "archite": 8433,
      "quarters": 8434,
      "statistics": 8435,
      "kins": 8436,
      "flying": 8437,
      "owe": 8438,
      "OUT": 8439,
      "Bor": 8440,
      "skill": 8441,
      "introduced": 8442,
      "previous": 8443,
      "loud": 8444,
      "request": 8445,
      "seconds": 8446,
      "noise": 8447,
      "anda": 8448,
      "1992": 8449,
      "arily": 8450,
      "promised": 8451,
      "Light": 8452,
      "appreci": 8453,
      "chos": 8454,
      "Van": 8455,
      "Ow": 8456,
      "48": 8457,
      "fal": 8458,
      "influence": 8459,
      "rang": 8460,
      "isher": 8461,
      "concerned": 8462,
      "sole": 8463,
      "meas": 8464,
      "Stay": 8465,
      "failed": 8466,
      "council": 8467,
      "vation": 8468,
      "vous": 8469,
      "jam": 8470,
      "pil": 8471,
      "itz": 8472,
      "Sea": 8473,
      "formula_": 8474,
      "image": 8475,
      "Center": 8476,
      "instru": 8477,
      "cel": 8478,
      "pian": 8479,
      "sigh": 8480,
      "ears": 8481,
      "resour": 8482,
      "lawyer": 8483,
      "gs": 8484,
      "Sw": 8485,
      "Depart": 8486,
      "Wind": 8487,
      "independent": 8488,
      "Pen": 8489,
      "len": 8490,
      "Dutch": 8491,
      "Harry": 8492,
      "surprised": 8493,
      "spoken": 8494,
      "league": 8495,
      "custo": 8496,
      "SC": 8497,
      "Company": 8498,
      "sevent": 8499,
      "ishop": 8500,
      "cloud": 8501,
      "buildings": 8502,
      "complain": 8503,
      "Won": 8504,
      "anx": 8505,
      "fixed": 8506,
      "Florida": 8507,
      "gers": 8508,
      "1993": 8509,
      "Mem": 8510,
      "drama": 8511,
      "pulled": 8512,
      "episode": 8513,
      "succeed": 8514,
      "castle": 8515,
      "candid": 8516,
      "journey": 8517,
      "plate": 8518,
      "75": 8519,
      "keys": 8520,
      "Ann": 8521,
      "progress": 8522,
      "adop": 8523,
      "technology": 8524,
      "Think": 8525,
      "1990": 8526,
      "Lie": 8527,
      "opinion": 8528,
      "possibly": 8529,
      "mail": 8530,
      "ost": 8531,
      "dying": 8532,
      "prefer": 8533,
      "\"?": 8534,
      "saf": 8535,
      "smell": 8536,
      "favour": 8537,
      "butter": 8538,
      "button": 8539,
      "veh": 8540,
      "vac": 8541,
      "manner": 8542,
      "Each": 8543,
      "tire": 8544,
      "UR": 8545,
      "listening": 8546,
      "southern": 8547,
      "destroyed": 8548,
      "laughed": 8549,
      "Down": 8550,
      "Ve": 8551,
      "attract": 8552,
      "collection": 8553,
      "Summer": 8554,
      "Aunt": 8555,
      "Watch": 8556,
      "resist": 8557,
      "Satur": 8558,
      "rated": 8559,
      "languages": 8560,
      "apt": 8561,
      "actual": 8562,
      "asleep": 8563,
      "Sub": 8564,
      "yan": 8565,
      "beach": 8566,
      "185": 8567,
      "Billy": 8568,
      "stret": 8569,
      "afford": 8570,
      "Pas": 8571,
      "Mum": 8572,
      "Vo": 8573,
      "tend": 8574,
      "Americans": 8575,
      "iverse": 8576,
      "easier": 8577,
      "Edward": 8578,
      "maintain": 8579,
      "rit": 8580,
      "threw": 8581,
      "cous": 8582,
      "driver": 8583,
      "recently": 8584,
      "tun": 8585,
      "Again": 8586,
      "Everyone": 8587,
      "33": 8588,
      "mut": 8589,
      "palace": 8590,
      "harm": 8591,
      "circum": 8592,
      "screw": 8593,
      "Britain": 8594,
      "pure": 8595,
      "sleeping": 8596,
      "nineteen": 8597,
      "location": 8598,
      "tha": 8599,
      "dreams": 8600,
      "arently": 8601,
      "FI": 8602,
      "fold": 8603,
      "transport": 8604,
      "knowing": 8605,
      "meter": 8606,
      "mainly": 8607,
      "watched": 8608,
      "pleasant": 8609,
      "magic": 8610,
      "network": 8611,
      "inois": 8612,
      "intellig": 8613,
      "rum": 8614,
      "Head": 8615,
      "jesty": 8616,
      "Pak": 8617,
      "pocket": 8618,
      "grant": 8619,
      "managed": 8620,
      "faces": 8621,
      "aving": 8622,
      "1991": 8623,
      "Whoa": 8624,
      "expression": 8625,
      "ette": 8626,
      "noticed": 8627,
      "Prime": 8628,
      "Department": 8629,
      "ancy": 8630,
      "custom": 8631,
      "trial": 8632,
      "guns": 8633,
      "Max": 8634,
      "Didn": 8635,
      "economic": 8636,
      "worst": 8637,
      "exer": 8638,
      "Group": 8639,
      "Da": 8640,
      "ador": 8641,
      "Georg": 8642,
      "Kent": 8643,
      "Angeles": 8644,
      "Sho": 8645,
      "TA": 8646,
      "accom": 8647,
      "Colonel": 8648,
      "mn": 8649,
      "content": 8650,
      "enge": 8651,
      "ardon": 8652,
      "Daddy": 8653,
      "awful": 8654,
      "provided": 8655,
      "ache": 8656,
      "Empire": 8657,
      "excuse": 8658,
      "Actually": 8659,
      "pher": 8660,
      "records": 8661,
      "Everybody": 8662,
      "Mass": 8663,
      "SS": 8664,
      "pha": 8665,
      "uals": 8666,
      "tong": 8667,
      "fifteen": 8668,
      "Way": 8669,
      "sail": 8670,
      "micro": 8671,
      "lab": 8672,
      "showing": 8673,
      "ying": 8674,
      "bull": 8675,
      "buried": 8676,
      "planning": 8677,
      "folk": 8678,
      "ws": 8679,
      "transl": 8680,
      "Damn": 8681,
      "utenant": 8682,
      "Nick": 8683,
      "Five": 8684,
      "ucky": 8685,
      "Ireland": 8686,
      "relie": 8687,
      "Whate": 8688,
      "Should": 8689,
      "selling": 8690,
      "iously": 8691,
      "Fil": 8692,
      "Child": 8693,
      "labor": 8694,
      "doors": 8695,
      "plat": 8696,
      "fingers": 8697,
      "Princess": 8698,
      "fare": 8699,
      "apping": 8700,
      "conversation": 8701,
      "assum": 8702,
      "OH": 8703,
      "everywhere": 8704,
      "Wo": 8705,
      "dirty": 8706,
      "confir": 8707,
      "reme": 8708,
      "hadn": 8709,
      "bodies": 8710,
      "chemical": 8711,
      "Whatever": 8712,
      "officers": 8713,
      "Yu": 8714,
      "dete": 8715,
      "47": 8716,
      "Last": 8717,
      "atre": 8718,
      "formation": 8719,
      "fro": 8720,
      "sque": 8721,
      "smoke": 8722,
      "isto": 8723,
      "occasion": 8724,
      "walls": 8725,
      "til": 8726,
      "drag": 8727,
      "priest": 8728,
      "lit": 8729,
      "damage": 8730,
      "ths": 8731,
      "losing": 8732,
      "ology": 8733,
      "religion": 8734,
      "compos": 8735,
      "aked": 8736,
      "feelings": 8737,
      "Division": 8738,
      "ulty": 8739,
      "Tre": 8740,
      "Soci": 8741,
      "acts": 8742,
      "stock": 8743,
      "spin": 8744,
      "Anyway": 8745,
      "assu": 8746,
      "stayed": 8747,
      "Hmm": 8748,
      "Parliament": 8749,
      "Ot": 8750,
      "younger": 8751,
      "Amy": 8752,
      "cellent": 8753,
      "oul": 8754,
      "Hol": 8755,
      "THIS": 8756,
      "connected": 8757,
      "feels": 8758,
      "thee": 8759,
      "required": 8760,
      "mig": 8761,
      "reality": 8762,
      "rick": 8763,
      "bottle": 8764,
      "task": 8765,
      "tough": 8766,
      "remains": 8767,
      "magazine": 8768,
      "gift": 8769,
      "loves": 8770,
      "1989": 8771,
      "jun": 8772,
      "sar": 8773,
      "Someone": 8774,
      "ENT": 8775,
      "Fre": 8776,
      "Rail": 8777,
      "isa": 8778,
      "lyn": 8779,
      "49": 8780,
      "Jud": 8781,
      "complic": 8782,
      "union": 8783,
      "Six": 8784,
      "Tony": 8785,
      "vili": 8786,
      "Illinois": 8787,
      "oph": 8788,
      "PS": 8789,
      "studies": 8790,
      "quit": 8791,
      "Mun": 8792,
      "Scotland": 8793,
      "papers": 8794,
      "mental": 8795,
      "crowd": 8796,
      "freedom": 8797,
      "Try": 8798,
      "Home": 8799,
      "document": 8800,
      "proof": 8801,
      "minor": 8802,
      "Bad": 8803,
      "í": 8804,
      "Holy": 8805,
      "sin": 8806,
      "Squ": 8807,
      "cute": 8808,
      "onic": 8809,
      "ishing": 8810,
      "Eliza": 8811,
      "Games": 8812,
      "struck": 8813,
      "IV": 8814,
      "Chuck": 8815,
      "ooth": 8816,
      "understanding": 8817,
      "traditional": 8818,
      "Hor": 8819,
      "Run": 8820,
      "opposite": 8821,
      "flag": 8822,
      "Latin": 8823,
      "wow": 8824,
      "altern": 8825,
      "Welcome": 8826,
      "understood": 8827,
      "Command": 8828,
      "troops": 8829,
      "tiny": 8830,
      "Gal": 8831,
      "scale": 8832,
      "require": 8833,
      "Shi": 8834,
      "motion": 8835,
      "activity": 8836,
      "relative": 8837,
      "fields": 8838,
      "finding": 8839,
      "guitar": 8840,
      "rence": 8841,
      "humans": 8842,
      "bare": 8843,
      "upset": 8844,
      "Cause": 8845,
      "fficient": 8846,
      "Saturday": 8847,
      "theast": 8848,
      "completed": 8849,
      "ima": 8850,
      "musical": 8851,
      "vy": 8852,
      "treatment": 8853,
      "improve": 8854,
      "units": 8855,
      "Camp": 8856,
      "statement": 8857,
      "umn": 8858,
      "syn": 8859,
      "giant": 8860,
      "ission": 8861,
      "Mah": 8862,
      "ips": 8863,
      "thoughts": 8864,
      "46": 8865,
      "Jackson": 8866,
      "lake": 8867,
      "restaur": 8868,
      "nament": 8869,
      "delic": 8870,
      "drawn": 8871,
      "Bank": 8872,
      "bat": 8873,
      "cells": 8874,
      "forgotten": 8875,
      "FC": 8876,
      "vest": 8877,
      "gam": 8878,
      "enty": 8879,
      "mbly": 8880,
      "bringing": 8881,
      "Bon": 8882,
      "SH": 8883,
      "effort": 8884,
      "swear": 8885,
      "psycho": 8886,
      "wave": 8887,
      "voc": 8888,
      "border": 8889,
      "upper": 8890,
      "Year": 8891,
      "eth": 8892,
      "utions": 8893,
      "300": 8894,
      "Water": 8895,
      "fought": 8896,
      "dressed": 8897,
      "cock": 8898,
      "thousands": 8899,
      "establish": 8900,
      "jum": 8901,
      "MP": 8902,
      "file": 8903,
      "pla": 8904,
      "drawing": 8905,
      "redu": 8906,
      "ARE": 8907,
      "workers": 8908,
      "Sc": 8909,
      "UP": 8910,
      "aters": 8911,
      "Bang": 8912,
      "helping": 8913,
      "Early": 8914,
      "Jimmy": 8915,
      "favorite": 8916,
      "rupt": 8917,
      "fruit": 8918,
      "bast": 8919,
      "Spr": 8920,
      "auto": 8921,
      "joke": 8922,
      "trem": 8923,
      "basis": 8924,
      "Tra": 8925,
      "Ron": 8926,
      "changing": 8927,
      "Sit": 8928,
      "itors": 8929,
      "solve": 8930,
      "passing": 8931,
      "Free": 8932,
      "billion": 8933,
      "...?": 8934,
      "Ten": 8935,
      "iny": 8936,
      "Commit": 8937,
      "Blue": 8938,
      "arrange": 8939,
      "whisper": 8940,
      "strict": 8941,
      "map": 8942,
      "pon": 8943,
      "rier": 8944,
      "UST": 8945,
      "Tu": 8946,
      "etc": 8947,
      "gall": 8948,
      "awa": 8949,
      "affect": 8950,
      "Cro": 8951,
      "Jeff": 8952,
      "Edu": 8953,
      "drunk": 8954,
      "1980": 8955,
      "advice": 8956,
      "matches": 8957,
      "matters": 8958,
      "sharp": 8959,
      "mally": 8960,
      "Record": 8961,
      "Chair": 8962,
      "deb": 8963,
      "useful": 8964,
      "drugs": 8965,
      "Oli": 8966,
      "jail": 8967,
      "Iran": 8968,
      "presence": 8969,
      "silence": 8970,
      "Cast": 8971,
      "serving": 8972,
      "jobs": 8973,
      "Fire": 8974,
      "sword": 8975,
      "golden": 8976,
      "safety": 8977,
      "Johnny": 8978,
      "meters": 8979,
      "numer": 8980,
      "Democratic": 8981,
      "native": 8982,
      "gentleman": 8983,
      "declared": 8984,
      "thur": 8985,
      "fired": 8986,
      "apa": 8987,
      "liber": 8988,
      "effects": 8989,
      "score": 8990,
      "solid": 8991,
      "dev": 8992,
      "Bes": 8993,
      "Friday": 8994,
      "Secretary": 8995,
      "Happ": 8996,
      "YE": 8997,
      "shirt": 8998,
      "shore": 8999,
      "closer": 9000,
      "Work": 9001,
      "chap": 9002,
      "ora": 9003,
      "target": 9004,
      "teaching": 9005,
      "branch": 9006,
      "Majesty": 9007,
      "mixed": 9008,
      "Sel": 9009,
      "stal": 9010,
      "gang": 9011,
      "accepted": 9012,
      "ninety": 9013,
      "tone": 9014,
      "sli": 9015,
      "1988": 9016,
      "Gra": 9017,
      "split": 9018,
      "audience": 9019,
      "chicken": 9020,
      "horri": 9021,
      "slo": 9022,
      "entirely": 9023,
      "cash": 9024,
      "holds": 9025,
      "hearing": 9026,
      "receive": 9027,
      "perfectly": 9028,
      "advent": 9029,
      "selected": 9030,
      "tears": 9031,
      "settled": 9032,
      "Book": 9033,
      "mel": 9034,
      "Ven": 9035,
      "wid": 9036,
      "dan": 9037,
      "web": 9038,
      "sugar": 9039,
      "presents": 9040,
      "uments": 9041,
      "PO": 9042,
      "sons": 9043,
      "Shit": 9044,
      "horn": 9045,
      "cru": 9046,
      "darling": 9047,
      "Institute": 9048,
      "spect": 9049,
      "domin": 9050,
      "advantage": 9051,
      "response": 9052,
      "newspaper": 9053,
      "terror": 9054,
      "falling": 9055,
      "55": 9056,
      "temperature": 9057,
      "credit": 9058,
      "SI": 9059,
      "Si": 9060,
      "cate": 9061,
      "Society": 9062,
      "Les": 9063,
      "drum": 9064,
      "Wol": 9065,
      "Steve": 9066,
      "excited": 9067,
      "authority": 9068,
      "awarded": 9069,
      "Olympics": 9070,
      "trail": 9071,
      "bub": 9072,
      "Arch": 9073,
      "ufact": 9074,
      "zing": 9075,
      "traf": 9076,
      "financial": 9077,
      "Northern": 9078,
      "locked": 9079,
      "broadcast": 9080,
      "Committee": 9081,
      "acle": 9082,
      "desire": 9083,
      "management": 9084,
      "ani": 9085,
      "Wall": 9086,
      "Gro": 9087,
      "owa": 9088,
      "ira": 9089,
      "weapons": 9090,
      "ached": 9091,
      "carefully": 9092,
      "Bell": 9093,
      "otherwise": 9094,
      "ANT": 9095,
      "Sher": 9096,
      "Daniel": 9097,
      "44": 9098,
      "1987": 9099,
      "RY": 9100,
      "pleased": 9101,
      "breaking": 9102,
      "pressed": 9103,
      "Pac": 9104,
      "lat": 9105,
      "Johnson": 9106,
      "traffic": 9107,
      "Rod": 9108,
      "drinking": 9109,
      "lax": 9110,
      "Follow": 9111,
      "contains": 9112,
      "Laugh": 9113,
      "justice": 9114,
      "knife": 9115,
      "stances": 9116,
      "Fair": 9117,
      "Night": 9118,
      "icide": 9119,
      "majority": 9120,
      "queen": 9121,
      "rab": 9122,
      "eleven": 9123,
      "Stand": 9124,
      "Fran": 9125,
      "Ori": 9126,
      "Dom": 9127,
      "streets": 9128,
      "azz": 9129,
      "CT": 9130,
      "Alan": 9131,
      "WAS": 9132,
      "poem": 9133,
      "̈r": 9134,
      "comment": 9135,
      "awn": 9136,
      "Jewish": 9137,
      "sphere": 9138,
      "brush": 9139,
      "recomm": 9140,
      "hib": 9141,
      "divor": 9142,
      "...\"": 9143,
      "experiment": 9144,
      "Hurry": 9145,
      "significant": 9146,
      "aded": 9147,
      "ains": 9148,
      "string": 9149,
      "sixty": 9150,
      "Southern": 9151,
      "Islam": 9152,
      "rand": 9153,
      "ares": 9154,
      "obtain": 9155,
      "faster": 9156,
      "notes": 9157,
      "pregn": 9158,
      "hes": 9159,
      "rings": 9160,
      "belief": 9161,
      "circle": 9162,
      "Cer": 9163,
      "asha": 9164,
      "medicine": 9165,
      "dust": 9166,
      "civili": 9167,
      "tied": 9168,
      "beside": 9169,
      "setting": 9170,
      "height": 9171,
      "limited": 9172,
      "concent": 9173,
      "generation": 9174,
      "comedy": 9175,
      "planned": 9176,
      "Awards": 9177,
      "Vol": 9178,
      "ilty": 9179,
      "Tot": 9180,
      "chest": 9181,
      "Kat": 9182,
      "Lind": 9183,
      "gment": 9184,
      "chant": 9185,
      "barr": 9186,
      "Dun": 9187,
      "familiar": 9188,
      "Sl": 9189,
      "BI": 9190,
      "Cat": 9191,
      "supply": 9192,
      "passeng": 9193,
      "apple": 9194,
      "rant": 9195,
      "avoid": 9196,
      "GR": 9197,
      "attend": 9198,
      "keeps": 9199,
      "removed": 9200,
      "ysis": 9201,
      "rapid": 9202,
      "1984": 9203,
      "consum": 9204,
      "growth": 9205,
      "Es": 9206,
      "poly": 9207,
      "represented": 9208,
      "Pakistan": 9209,
      "igan": 9210,
      "aland": 9211,
      "paying": 9212,
      "increased": 9213,
      "advan": 9214,
      "tradition": 9215,
      "aning": 9216,
      "reven": 9217,
      "agent": 9218,
      "DON": 9219,
      "Jun": 9220,
      "bin": 9221,
      "sees": 9222,
      "rison": 9223,
      "Irish": 9224,
      "FE": 9225,
      "armed": 9226,
      "Victori": 9227,
      "Museum": 9228,
      "confess": 9229,
      "tap": 9230,
      "reign": 9231,
      "signal": 9232,
      "Ka": 9233,
      "scr": 9234,
      "highly": 9235,
      "Trans": 9236,
      "cant": 9237,
      "Ass": 9238,
      "proceed": 9239,
      "scen": 9240,
      "scored": 9241,
      ".]": 9242,
      "42": 9243,
      "mony": 9244,
      ".)": 9245,
      "Tro": 9246,
      "mann": 9247,
      "suggested": 9248,
      "Too": 9249,
      "zes": 9250,
      "strike": 9251,
      "resent": 9252,
      "figures": 9253,
      "invited": 9254,
      "',": 9255,
      "batter": 9256,
      "pit": 9257,
      "rug": 9258,
      "dancing": 9259,
      "coal": 9260,
      "bass": 9261,
      "pir": 9262,
      "prior": 9263,
      "primary": 9264,
      "professor": 9265,
      "mountains": 9266,
      "calcul": 9267,
      "pink": 9268,
      "alty": 9269,
      "Ali": 9270,
      "Sweden": 9271,
      "fifth": 9272,
      "resident": 9273,
      "Aye": 9274,
      "kidding": 9275,
      "federal": 9276,
      "basic": 9277,
      "SA": 9278,
      "listed": 9279,
      "bunch": 9280,
      "producer": 9281,
      "colour": 9282,
      "channel": 9283,
      "Fam": 9284,
      "revolution": 9285,
      "Israel": 9286,
      "powers": 9287,
      "equi": 9288,
      "Death": 9289,
      "chain": 9290,
      "Simon": 9291,
      "library": 9292,
      "Arthur": 9293,
      "knock": 9294,
      "forgive": 9295,
      "apartment": 9296,
      "trou": 9297,
      "headed": 9298,
      "AH": 9299,
      "portion": 9300,
      "Kill": 9301,
      "vention": 9302,
      "status": 9303,
      "Sarah": 9304,
      "Tele": 9305,
      "oma": 9306,
      "victory": 9307,
      "Asia": 9308,
      "1979": 9309,
      "hanging": 9310,
      "chosen": 9311,
      "Rac": 9312,
      "failure": 9313,
      "crash": 9314,
      "1986": 9315,
      "mming": 9316,
      "**": 9317,
      "DI": 9318,
      "Gil": 9319,
      "nights": 9320,
      "wich": 9321,
      "aria": 9322,
      "background": 9323,
      "nervous": 9324,
      "cards": 9325,
      "programs": 9326,
      "tive": 9327,
      "carrying": 9328,
      "multiple": 9329,
      "hmm": 9330,
      "windows": 9331,
      "extremely": 9332,
      "eighty": 9333,
      "museum": 9334,
      "limit": 9335,
      "1981": 9336,
      "arrested": 9337,
      "hiding": 9338,
      "plenty": 9339,
      "manufact": 9340,
      "element": 9341,
      "Police": 9342,
      "Tay": 9343,
      "NOT": 9344,
      "somehow": 9345,
      "expensive": 9346,
      "Ash": 9347,
      "Cho": 9348,
      "1972": 9349,
      "railway": 9350,
      "fortunately": 9351,
      "organis": 9352,
      "Robin": 9353,
      "shame": 9354,
      "roles": 9355,
      "soldier": 9356,
      "blank": 9357,
      "Alice": 9358,
      "protest": 9359,
      "scientific": 9360,
      "aircraft": 9361,
      "elements": 9362,
      "allows": 9363,
      "CD": 9364,
      "Danny": 9365,
      "arian": 9366,
      "excl": 9367,
      "suspect": 9368,
      "shooting": 9369,
      "):": 9370,
      "potential": 9371,
      "\"\"": 9372,
      "integr": 9373,
      "tongue": 9374,
      "1983": 9375,
      "icking": 9376,
      "activities": 9377,
      "latter": 9378,
      "instance": 9379,
      "cheer": 9380,
      "quid": 9381,
      "Juli": 9382,
      "schol": 9383,
      "Pi": 9384,
      "Andrew": 9385,
      "defeated": 9386,
      "route": 9387,
      "tainment": 9388,
      "99": 9389,
      "bone": 9390,
      "cheese": 9391,
      "root": 9392,
      "upstairs": 9393,
      "quant": 9394,
      "eastern": 9395,
      "remembered": 9396,
      "Sk": 9397,
      "purch": 9398,
      "tum": 9399,
      "aband": 9400,
      "stein": 9401,
      "sales": 9402,
      "ghost": 9403,
      "products": 9404,
      "Tech": 9405,
      "YOUR": 9406,
      "passion": 9407,
      "chuck": 9408,
      "(;": 9409,
      "rican": 9410,
      "1985": 9411,
      "connection": 9412,
      "ports": 9413,
      "supported": 9414,
      "rd": 9415,
      "grade": 9416,
      "defend": 9417,
      "wire": 9418,
      "aud": 9419,
      "narrow": 9420,
      "ques": 9421,
      "factory": 9422,
      "Swit": 9423,
      "slightly": 9424,
      "bang": 9425,
      "Social": 9426,
      "visions": 9427,
      "poison": 9428,
      "expand": 9429,
      "capac": 9430,
      "zerland": 9431,
      "65": 9432,
      "Pop": 9433,
      "replace": 9434,
      "oops": 9435,
      "fairly": 9436,
      "ware": 9437,
      "sched": 9438,
      "wore": 9439,
      "ishment": 9440,
      "Chan": 9441,
      "cycle": 9442,
      "Baby": 9443,
      "llen": 9444,
      "adium": 9445,
      "guilty": 9446,
      "advert": 9447,
      "achieve": 9448,
      "goals": 9449,
      "flew": 9450,
      "Brazil": 9451,
      "meal": 9452,
      "homes": 9453,
      "seriously": 9454,
      "Switzerland": 9455,
      "VI": 9456,
      "mathem": 9457,
      "Elizabeth": 9458,
      "governor": 9459,
      "frame": 9460,
      "Tommy": 9461,
      "hook": 9462,
      "Found": 9463,
      "Greg": 9464,
      "Jones": 9465,
      "happiness": 9466,
      "logist": 9467,
      "brave": 9468,
      "stable": 9469,
      "1982": 9470,
      "script": 9471,
      "indu": 9472,
      "WO": 9473,
      "afterwards": 9474,
      "Maria": 9475,
      "hase": 9476,
      "incident": 9477,
      "ocean": 9478,
      "prepar": 9479,
      "duck": 9480,
      "ctors": 9481,
      "Iowa": 9482,
      "ulate": 9483,
      "realized": 9484,
      "Commission": 9485,
      "ception": 9486,
      ",'": 9487,
      "gue": 9488,
      "Such": 9489,
      "Had": 9490,
      "\").": 9491,
      "Province": 9492,
      "grace": 9493,
      "Publ": 9494,
      "films": 9495,
      "Uk": 9496,
      "weapon": 9497,
      "coo": 9498,
      "Sid": 9499,
      "wings": 9500,
      "chester": 9501,
      "mole": 9502,
      "colon": 9503,
      "Cas": 9504,
      "insur": 9505,
      "blame": 9506,
      "carbon": 9507,
      "Want": 9508,
      "thri": 9509,
      "orange": 9510,
      "ching": 9511,
      "levels": 9512,
      "girlfriend": 9513,
      "recording": 9514,
      "Tam": 9515,
      "silent": 9516,
      "Carolina": 9517,
      "rocks": 9518,
      "causes": 9519,
      "cation": 9520,
      "ads": 9521,
      "vessel": 9522,
      "ila": 9523,
      "Liber": 9524,
      "hidden": 9525,
      "tower": 9526,
      "1976": 9527,
      "temporary": 9528,
      "telephone": 9529,
      "males": 9530,
      "details": 9531,
      "tories": 9532,
      "bec": 9533,
      "alle": 9534,
      "Leon": 9535,
      "classes": 9536,
      "ulated": 9537,
      "Football": 9538,
      "sheep": 9539,
      "ires": 9540,
      "heav": 9541,
      "Ga": 9542,
      "univers": 9543,
      "fallen": 9544,
      "resources": 9545,
      "bun": 9546,
      "UE": 9547,
      "writ": 9548,
      "wondering": 9549,
      "throat": 9550,
      "patch": 9551,
      "grab": 9552,
      "escap": 9553,
      "shoulder": 9554,
      "weekend": 9555,
      "Shall": 9556,
      "incred": 9557,
      "Mountain": 9558,
      "innocent": 9559,
      "oldest": 9560,
      "Naz": 9561,
      "begg": 9562,
      "universe": 9563,
      "Ox": 9564,
      "approxim": 9565,
      "ava": 9566,
      "Zealand": 9567,
      "ental": 9568,
      "nick": 9569,
      "Py": 9570,
      "responsibility": 9571,
      "fancy": 9572,
      "Looks": 9573,
      "commission": 9574,
      "existence": 9575,
      "Valley": 9576,
      "Bow": 9577,
      "atom": 9578,
      "commercial": 9579,
      "tank": 9580,
      "bond": 9581,
      "struct": 9582,
      "deser": 9583,
      "shadow": 9584,
      "apolog": 9585,
      "costs": 9586,
      "CHAP": 9587,
      "devil": 9588,
      "desc": 9589,
      "gery": 9590,
      "cabin": 9591,
      "valu": 9592,
      "committee": 9593,
      "Team": 9594,
      "diag": 9595,
      "bite": 9596,
      "forts": 9597,
      "geo": 9598,
      "flict": 9599,
      "lone": 9600,
      "attended": 9601,
      "cousin": 9602,
      "tware": 9603,
      "Republican": 9604,
      "sacri": 9605,
      "furn": 9606,
      "Boston": 9607,
      "App": 9608,
      "witch": 9609,
      "ctic": 9610,
      "sets": 9611,
      "presented": 9612,
      "determined": 9613,
      "1970": 9614,
      "Lar": 9615,
      "Lab": 9616,
      "mous": 9617,
      "1978": 9618,
      "Class": 9619,
      "1974": 9620,
      "vive": 9621,
      "aly": 9622,
      "aks": 9623,
      "ule": 9624,
      "visible": 9625,
      "staying": 9626,
      "stations": 9627,
      "normally": 9628,
      "Korea": 9629,
      "princess": 9630,
      "lap": 9631,
      "astr": 9632,
      "disappeared": 9633,
      "helps": 9634,
      "som": 9635,
      "parties": 9636,
      "false": 9637,
      "stated": 9638,
      "solved": 9639,
      "enna": 9640,
      "20th": 9641,
      "Yet": 9642,
      "ingu": 9643,
      "steam": 9644,
      "refused": 9645,
      "Middle": 9646,
      "attacked": 9647,
      "relax": 9648,
      "seasons": 9649,
      "leaders": 9650,
      "eping": 9651,
      "roads": 9652,
      "Isa": 9653,
      "feature": 9654,
      "waited": 9655,
      "Offic": 9656,
      "mont": 9657,
      "joint": 9658,
      "Ari": 9659,
      "BA": 9660,
      "Hard": 9661,
      "Leg": 9662,
      "finds": 9663,
      "fortune": 9664,
      "THING": 9665,
      "propos": 9666,
      "ales": 9667,
      "cig": 9668,
      "Bus": 9669,
      "chose": 9670,
      "1973": 9671,
      "oring": 9672,
      "protection": 9673,
      "paint": 9674,
      "economy": 9675,
      "artists": 9676,
      "folks": 9677,
      "fate": 9678,
      "inhabit": 9679,
      "occurred": 9680,
      "sites": 9681,
      "politics": 9682,
      "acted": 9683,
      "suffered": 9684,
      "mile": 9685,
      "killer": 9686,
      "stands": 9687,
      "CHAPTER": 9688,
      "Wales": 9689,
      "Hand": 9690,
      "continues": 9691,
      "ami": 9692,
      "Enter": 9693,
      "dram": 9694,
      "piano": 9695,
      "Ta": 9696,
      "touched": 9697,
      "tournament": 9698,
      "clever": 9699,
      "isted": 9700,
      "seek": 9701,
      "disco": 9702,
      "dread": 9703,
      "begins": 9704,
      "instrument": 9705,
      "Gri": 9706,
      "Ted": 9707,
      "distur": 9708,
      "LAU": 9709,
      "contest": 9710,
      "ridic": 9711,
      "discover": 9712,
      "treated": 9713,
      "criminal": 9714,
      "SP": 9715,
      "veget": 9716,
      "admit": 9717,
      "Roger": 9718,
      "medal": 9719,
      "challenge": 9720,
      "gie": 9721,
      "jected": 9722,
      "mud": 9723,
      "variety": 9724,
      "Force": 9725,
      "Tha": 9726,
      "aid": 9727,
      "hunting": 9728,
      "consequ": 9729,
      "worn": 9730,
      "--&": 9731,
      "Ku": 9732,
      "1969": 9733,
      "loose": 9734,
      "appropri": 9735,
      "Emperor": 9736,
      "stress": 9737,
      "unknown": 9738,
      "entially": 9739,
      "agreement": 9740,
      "nap": 9741,
      "counts": 9742,
      "grees": 9743,
      "temple": 9744,
      "Kansas": 9745,
      "alous": 9746,
      "article": 9747,
      "profit": 9748,
      "royal": 9749,
      "juice": 9750,
      "Eastern": 9751,
      "honour": 9752,
      "KNOW": 9753,
      "inner": 9754,
      "Happy": 9755,
      "RB": 9756,
      "dess": 9757,
      "violence": 9758,
      "core": 9759,
      "Dear": 9760,
      "increasing": 9761,
      "Egypt": 9762,
      "pas": 9763,
      "proposed": 9764,
      "daily": 9765,
      "WITH": 9766,
      "Hit": 9767,
      "Monday": 9768,
      "engaged": 9769,
      "eding": 9770,
      "whoa": 9771,
      "previously": 9772,
      "sem": 9773,
      "Anything": 9774,
      "ito": 9775,
      "referred": 9776,
      "Civ": 9777,
      "webs": 9778,
      "Fri": 9779,
      "Without": 9780,
      "urally": 9781,
      "legisl": 9782,
      "recognized": 9783,
      "idiot": 9784,
      "Gard": 9785,
      "photograph": 9786,
      "Hun": 9787,
      "mam": 9788,
      "tex": 9789,
      "flash": 9790,
      "1975": 9791,
      "techni": 9792,
      "severe": 9793,
      "Senate": 9794,
      "tender": 9795,
      "sentence": 9796,
      "income": 9797,
      "emplo": 9798,
      "bran": 9799,
      "Besides": 9800,
      "ds": 9801,
      "lliant": 9802,
      "ultim": 9803,
      "inch": 9804,
      "Must": 9805,
      "friendly": 9806,
      "climate": 9807,
      "Tem": 9808,
      "eration": 9809,
      "online": 9810,
      "operations": 9811,
      "95": 9812,
      "Tour": 9813,
      "1977": 9814,
      "1968": 9815,
      "towns": 9816,
      "degrees": 9817,
      "41": 9818,
      "falls": 9819,
      "HAVE": 9820,
      "flood": 9821,
      "associated": 9822,
      "Sab": 9823,
      "Anna": 9824,
      "Hung": 9825,
      "excellent": 9826,
      "suicide": 9827,
      "ulture": 9828,
      "rance": 9829,
      "Times": 9830,
      "iger": 9831,
      "magn": 9832,
      "Station": 9833,
      "equip": 9834,
      "suffering": 9835,
      "IF": 9836,
      "Kong": 9837,
      "values": 9838,
      "kingdom": 9839,
      "mobile": 9840,
      "marked": 9841,
      "neighbour": 9842,
      "Battle": 9843,
      "acade": 9844,
      "cris": 9845,
      "icks": 9846,
      "arrang": 9847,
      "regret": 9848,
      "End": 9849,
      "aside": 9850,
      "66": 9851,
      "Ev": 9852,
      "objects": 9853,
      "Whe": 9854,
      "Susan": 9855,
      "iation": 9856,
      "balls": 9857,
      "voted": 9858,
      "CAN": 9859,
      "1971": 9860,
      "400": 9861,
      "Pier": 9862,
      "creation": 9863,
      "Rab": 9864,
      "Anton": 9865,
      "Carl": 9866,
      "autom": 9867,
      "Exactly": 9868,
      "officially": 9869,
      "woods": 9870,
      "pul": 9871,
      "Common": 9872,
      "angers": 9873,
      "EP": 9874,
      "Were": 9875,
      "lipp": 9876,
      "apparently": 9877,
      "burst": 9878,
      "breast": 9879,
      "territory": 9880,
      "register": 9881,
      "moves": 9882,
      "Pu": 9883,
      "follows": 9884,
      "budget": 9885,
      "Jess": 9886,
      "repeated": 9887,
      "organized": 9888,
      "hundreds": 9889,
      "vig": 9890,
      "beer": 9891,
      "Fa": 9892,
      "aspect": 9893,
      "urban": 9894,
      "agu": 9895,
      "Net": 9896,
      "Director": 9897,
      "43": 9898,
      "hunt": 9899,
      "hydro": 9900,
      "Por": 9901,
      "Alexander": 9902,
      "Turk": 9903,
      "Andy": 9904,
      "ola": 9905,
      "19th": 9906,
      "capable": 9907,
      "sisters": 9908,
      "istry": 9909,
      "etch": 9910,
      "Fu": 9911,
      "pression": 9912,
      "nical": 9913,
      "shine": 9914,
      "Mount": 9915,
      "Bring": 9916,
      "truly": 9917,
      "argu": 9918,
      "Jerry": 9919,
      "dip": 9920,
      "handsome": 9921,
      "cycl": 9922,
      "charged": 9923,
      "Bat": 9924,
      "Yep": 9925,
      "aye": 9926,
      "ala": 9927,
      "properly": 9928,
      "benefit": 9929,
      "1964": 9930,
      "gaz": 9931,
      "somewhat": 9932,
      "hoping": 9933,
      "appreciate": 9934,
      "OP": 9935,
      "featured": 9936,
      "lon": 9937,
      "Mich": 9938,
      "commonly": 9939,
      "ille": 9940,
      "plement": 9941,
      "cheek": 9942,
      "boyfriend": 9943,
      "itty": 9944,
      "cheap": 9945,
      "tropical": 9946,
      "alco": 9947,
      "steal": 9948,
      "geant": 9949,
      "moral": 9950,
      "burning": 9951,
      "Atlantic": 9952,
      "gust": 9953,
      "compared": 9954,
      "\"),": 9955,
      "argument": 9956,
      "advis": 9957,
      "grat": 9958,
      "client": 9959,
      "hip": 9960,
      "drove": 9961,
      "Oper": 9962,
      "senior": 9963,
      "Records": 9964,
      "OULD": 9965,
      "marks": 9966,
      "Swe": 9967,
      "erk": 9968,
      "grate": 9969,
      "eneath": 9970,
      "kilo": 9971,
      "sie": 9972,
      "Shar": 9973,
      "circumstances": 9974,
      "ett": 9975,
      "creature": 9976,
      "Intern": 9977,
      "borrow": 9978,
      "Asian": 9979,
      "CON": 9980,
      "importance": 9981,
      "bones": 9982,
      "earned": 9983,
      "ras": 9984,
      "Jersey": 9985,
      "conce": 9986,
      "delay": 9987,
      "perman": 9988,
      "AK": 9989,
      "mart": 9990,
      "Pacific": 9991,
      "recognize": 9992,
      "virt": 9993,
      "ricane": 9994,
      "Bri": 9995,
      "Line": 9996,
      "ey": 9997,
      "bitter": 9998,
      "THER": 9999,
      "Service": 10000,
      "behavior": 10001,
      "Until": 10002,
      "intended": 10003,
      "analysis": 10004,
      "85": 10005,
      "saving": 10006,
      "Berlin": 10007,
      "rice": 10008,
      "unte": 10009,
      "nuclear": 10010,
      "Brian": 10011,
      "puts": 10012,
      "icated": 10013,
      "adel": 10014,
      "organiz": 10015,
      "Mir": 10016,
      "Cu": 10017,
      "Cross": 10018,
      "laughter": 10019,
      "--\"": 10020,
      "signs": 10021,
      "individuals": 10022,
      "Aw": 10023,
      "swim": 10024,
      "goodness": 10025,
      "phr": 10026,
      "1967": 10027,
      "babies": 10028,
      "restaurant": 10029,
      "shel": 10030,
      "Francisco": 10031,
      "Metro": 10032,
      "conference": 10033,
      "survive": 10034,
      "chart": 10035,
      "Walter": 10036,
      "explained": 10037,
      "Georgia": 10038,
      "ilian": 10039,
      "prime": 10040,
      "LAUGH": 10041,
      "ustration": 10042,
      "sweetie": 10043,
      "yards": 10044,
      "launched": 10045,
      "1930": 10046,
      "noted": 10047,
      "overall": 10048,
      "Human": 10049,
      "buddy": 10050,
      "unique": 10051,
      "Festival": 10052,
      "shake": 10053,
      "pushed": 10054,
      "Song": 10055,
      "nominated": 10056,
      "committed": 10057,
      "Somebody": 10058,
      "faced": 10059,
      "Brook": 10060,
      "stones": 10061,
      "tracks": 10062,
      "disci": 10063,
      "darkness": 10064,
      "patients": 10065,
      "gotten": 10066,
      "anny": 10067,
      "obvious": 10068,
      "Ukrain": 10069,
      "kit": 10070,
      "slept": 10071,
      "reports": 10072,
      "equipment": 10073,
      "blast": 10074,
      "stole": 10075,
      "plot": 10076,
      "advance": 10077,
      "critical": 10078,
      "umph": 10079,
      "cue": 10080,
      "eleph": 10081,
      "ighs": 10082,
      "eaten": 10083,
      "bie": 10084,
      "supp": 10085,
      "website": 10086,
      "pale": 10087,
      "fishing": 10088,
      "software": 10089,
      "brings": 10090,
      "Cub": 10091,
      "colate": 10092,
      "Film": 10093,
      "Eh": 10094,
      "grav": 10095,
      "Brad": 10096,
      "Lieutenant": 10097,
      "desk": 10098,
      "historical": 10099,
      "employe": 10100,
      "exchange": 10101,
      "Chairman": 10102,
      "cia": 10103,
      "cular": 10104,
      "wrest": 10105,
      "sters": 10106,
      "idae": 10107,
      "fled": 10108,
      "earch": 10109,
      "Bra": 10110,
      "winner": 10111,
      "metres": 10112,
      "industrial": 10113,
      "Donald": 10114,
      "Ban": 10115,
      "sion": 10116,
      "Radio": 10117,
      "bastard": 10118,
      "horrible": 10119,
      "́e": 10120,
      "teachers": 10121,
      "Dave": 10122,
      "appointment": 10123,
      "composed": 10124,
      "parish": 10125,
      "Korean": 10126,
      "TI": 10127,
      "swimming": 10128,
      "Jr": 10129,
      "Top": 10130,
      "Navy": 10131,
      "pants": 10132,
      "interpret": 10133,
      "pursu": 10134,
      "Ur": 10135,
      "aunt": 10136,
      "Jac": 10137,
      "decor": 10138,
      "assistant": 10139,
      "Know": 10140,
      "icket": 10141,
      "depends": 10142,
      "Office": 10143,
      "adult": 10144,
      "aki": 10145,
      "thrown": 10146,
      "Geo": 10147,
      "GET": 10148,
      "additional": 10149,
      "plause": 10150,
      "vor": 10151,
      "goods": 10152,
      "Ay": 10153,
      "nuts": 10154,
      "romantic": 10155,
      "correspond": 10156,
      "gian": 10157,
      "mates": 10158,
      "Cla": 10159,
      "outs": 10160,
      "Education": 10161,
      "Soon": 10162,
      "88": 10163,
      "uss": 10164,
      "constit": 10165,
      "closely": 10166,
      "reaction": 10167,
      "merely": 10168,
      "accompl": 10169,
      "Marg": 10170,
      "Fall": 10171,
      "reser": 10172,
      "burgh": 10173,
      "observ": 10174,
      "Poor": 10175,
      "dun": 10176,
      "wished": 10177,
      "pattern": 10178,
      "Ton": 10179,
      "kings": 10180,
      "Honey": 10181,
      "Pho": 10182,
      "Board": 10183,
      "Lam": 10184,
      "Holly": 10185,
      "97": 10186,
      "atmo": 10187,
      "minim": 10188,
      "elder": 10189,
      "splend": 10190,
      "Matthe": 10191,
      "enem": 10192,
      "́t": 10193,
      "Game": 10194,
      "Lad": 10195,
      "pointed": 10196,
      "Marie": 10197,
      "1960": 10198,
      "spite": 10199,
      "challeng": 10200,
      "PLA": 10201,
      "acid": 10202,
      "Die": 10203,
      "pity": 10204,
      "encies": 10205,
      "valley": 10206,
      "uset": 10207,
      "embarr": 10208,
      "1945": 10209,
      "curious": 10210,
      "spell": 10211,
      "Broad": 10212,
      "MI": 10213,
      "secut": 10214,
      "user": 10215,
      "neighborhood": 10216,
      "beneath": 10217,
      "titles": 10218,
      "mouse": 10219,
      "situ": 10220,
      "Trust": 10221,
      "etic": 10222,
      "gling": 10223,
      "describe": 10224,
      "assa": 10225,
      "iring": 10226,
      "captured": 10227,
      "desper": 10228,
      "DNA": 10229,
      "fuel": 10230,
      "gods": 10231,
      "Civil": 10232,
      "cert": 10233,
      "glasses": 10234,
      "basketball": 10235,
      "accur": 10236,
      "Nether": 10237,
      "Golden": 10238,
      "iest": 10239,
      "180": 10240,
      "symbol": 10241,
      "embarrass": 10242,
      "conver": 10243,
      "steel": 10244,
      "jan": 10245,
      "beast": 10246,
      "News": 10247,
      "Tar": 10248,
      "frightened": 10249,
      "Ni": 10250,
      "Win": 10251,
      "Winter": 10252,
      "DS": 10253,
      "settlement": 10254,
      "puzz": 10255,
      "1st": 10256,
      "insp": 10257,
      "estate": 10258,
      "oop": 10259,
      "Taylor": 10260,
      "Os": 10261,
      "Prize": 10262,
      "Seven": 10263,
      "exact": 10264,
      "rising": 10265,
      "trained": 10266,
      "holiday": 10267,
      "bay": 10268,
      "mama": 10269,
      "Kev": 10270,
      "disse": 10271,
      "Duke": 10272,
      "fence": 10273,
      "retire": 10274,
      "mod": 10275,
      "alcohol": 10276,
      "Hong": 10277,
      "surely": 10278,
      "theme": 10279,
      "stance": 10280,
      "belt": 10281,
      "Eric": 10282,
      "slip": 10283,
      "Bio": 10284,
      "coln": 10285,
      "competed": 10286,
      "Scottish": 10287,
      "Him": 10288,
      "Bav": 10289,
      "brid": 10290,
      "democr": 10291,
      "monster": 10292,
      "Williams": 10293,
      "suspic": 10294,
      "investigation": 10295,
      "ridiculous": 10296,
      "frag": 10297,
      "Steven": 10298,
      "Victoria": 10299,
      "sis": 10300,
      "LES": 10301,
      "ckey": 10302,
      "ethe": 10303,
      "leaf": 10304,
      "soil": 10305,
      "volume": 10306,
      "lonely": 10307,
      "remaining": 10308,
      "install": 10309,
      "None": 10310,
      "insurance": 10311,
      "odes": 10312,
      "grandfather": 10313,
      "nurse": 10314,
      "vit": 10315,
      "feather": 10316,
      "blocks": 10317,
      "literature": 10318,
      "emergency": 10319,
      "1966": 10320,
      "rend": 10321,
      "tip": 10322,
      "achuset": 10323,
      "ugly": 10324,
      "pretend": 10325,
      "67": 10326,
      "Tai": 10327,
      "sending": 10328,
      "reward": 10329,
      "aired": 10330,
      "ias": 10331,
      "stronger": 10332,
      "Aha": 10333,
      "mood": 10334,
      "application": 10335,
      "uded": 10336,
      "tage": 10337,
      "balance": 10338,
      "Represent": 10339,
      "brilliant": 10340,
      "cultural": 10341,
      "citizens": 10342,
      "pride": 10343,
      "handed": 10344,
      "Ak": 10345,
      "tools": 10346,
      "Sara": 10347,
      "Viet": 10348,
      "achusetts": 10349,
      "Health": 10350,
      "Asse": 10351,
      "enemies": 10352,
      "riding": 10353,
      "angel": 10354,
      "Bible": 10355,
      "Through": 10356,
      "affected": 10357,
      "Gun": 10358,
      "sne": 10359,
      "athy": 10360,
      "Mmm": 10361,
      "gained": 10362,
      "bust": 10363,
[...]
